{"<PAD>":0,"<UNK>":1,"<BOS>":2,"<EOS>":3,"!":4,"\"":5,"#":6,"$":7,"%":8,"&":9,"'":10,"(":11,")":12,"*":13,"+":14,",":15,"-":16,".":17,"/":18,"0":19,"1":20,"2":21,"3":22,"4":23,"5":24,"6":25,"7":26,"8":27,"9":28,":":29,";":30,"<":31,"=":32,">":33,"?":34,"@":35,"A":36,"B":37,"C":38,"D":39,"E":40,"F":41,"G":42,"H":43,"I":44,"J":45,"K":46,"L":47,"M":48,"N":49,"O":50,"P":51,"Q":52,"R":53,"S":54,"T":55,"U":56,"V":57,"W":58,"X":59,"Y":60,"Z":61,"[":62,"\\":63,"]":64,"^":65,"_":66,"`":67,"a":68,"b":69,"c":70,"d":71,"e":72,"f":73,"g":74,"h":75,"i":76,"j":77,"k":78,"l":79,"m":80,"n":81,"o":82,"p":83,"q":84,"r":85,"s":86,"t":87,"u":88,"v":89,"w":90,"x":91,"y":92,"z":93,"{":94,"|":95,"}":96,"~":97,"¡":98,"¢":99,"£":100,"¤":101,"¥":102,"¦":103,"§":104,"¨":105,"©":106,"ª":107,"«":108,"¬":109,"®":110,"¯":111,"°":112,"±":113,"²":114,"³":115,"´":116,"µ":117,"¶":118,"·":119,"¸":120,"¹":121,"º":122,"»":123,"¼":124,"½":125,"¾":126,"¿":127,"À":128,"Á":129,"Â":130,"Ã":131,"Ä":132,"Å":133,"Æ":134,"Ç":135,"È":136,"É":137,"Ê":138,"Ë":139,"Ì":140,"Í":141,"Î":142,"Ï":143,"Ð":144,"Ñ":145,"Ò":146,"Ó":147,"Ô":148,"Õ":149,"Ö":150,"×":151,"Ø":152,"Ù":153,"Ú":154,"Û":155,"Ü":156,"Ý":157,"Þ":158,"ß":159,"à":160,"á":161,"â":162,"ã":163,"ä":164,"å":165,"æ":166,"ç":167,"è":168,"é":169,"ê":170,"ë":171,"ì":172,"í":173,"î":174,"ï":175,"ð":176,"ñ":177,"ò":178,"ó":179,"ô":180,"õ":181,"ö":182,"÷":183,"ø":184,"ù":185,"ú":186,"û":187,"ü":188,"ý":189,"þ":190,"ÿ":191,"Ā":192,"ā":193,"Ă":194,"ă":195,"Ą":196,"ą":197,"Ć":198,"ć":199,"Ĉ":200,"ĉ":201,"Ċ":202,"ċ":203,"Č":204,"č":205,"Ď":206,"ď":207,"Đ":208,"đ":209,"Ē":210,"ē":211,"Ĕ":212,"ĕ":213,"Ė":214,"ė":215,"Ę":216,"ę":217,"Ě":218,"ě":219,"Ĝ":220,"ĝ":221,"Ğ":222,"ğ":223,"Ġ":224,"ġ":225,"Ģ":226,"ģ":227,"Ĥ":228,"ĥ":229,"Ħ":230,"ħ":231,"Ĩ":232,"ĩ":233,"Ī":234,"ī":235,"Ĭ":236,"ĭ":237,"Į":238,"į":239,"İ":240,"ı":241,"Ĳ":242,"ĳ":243,"Ĵ":244,"ĵ":245,"Ķ":246,"ķ":247,"ĸ":248,"Ĺ":249,"ĺ":250,"Ļ":251,"ļ":252,"Ľ":253,"ľ":254,"Ŀ":255,"ŀ":256,"Ł":257,"ł":258,"Ń":259,"Ġa":260,"in":261,"ing":262,"Ġs":263,"Ġw":264,"th":265,"Ġo":266,"an":267,"Ġb":268,"er":269,"re":270,"Ġin":271,"Ġp":272,"Ġm":273,"Ġth":274,"Ġc":275,"le":276,"hi":277,"Ġt":278,"ro":279,"Ġthe":280,"ar":281,"nd":282,"Ġg":283,"is":284,"Ġon":285,"Ġd":286,"Ġf":287,"Ġh":288,"la":289,"al":290,"en":291,"Ġand":292,"Ġof":293,"Ġis":294,"Ġman":295,"at":296,"om":297,"it":298,"ck":299,"Ġst":300,"Ġwi":301,"lo":302,"Ġwith":303,"or":304,"es":305,"ld":306,"un":307,"ir":308,"on":309,"et":310,"Ġto":311,"id":312,"Ġwom":313,"ed":314,"Ġwhi":315,"and":316,"Ġdo":317,"ear":318,"king":319,"rou":320,"op":321,"ra":322,"Ġare":323,"wo":324,"ch":325,"Ġwoman":326,"ss":327,"Ġbo":328,"Ġpla":329,"ic":330,"rt":331,"Ġy":332,"Ġat":333,"all":334,"Ġre":335,"ople":336,"eople":337,"te":338,"two":339,"Ġhi":340,"ers":341,"ut":342,"oun":343,"hirt":344,"ting":345,"Ġl":346,"Ġplay":347,"Ġwear":348,"ge":349,"Ġwearing":350,"Ġan":351,"Ġr":352,"wn":353,"Ġshirt":354,"el":355,"Ġstand":356,"Ġsit":357,"st":358,"Ġj":359,"Ġpeople":360,"Ġba":361,"Ġn":362,"ide":363,"oung":364,"ur":365,"Ġlo":366,"Ġwhite":367,"ea":368,"ther":369,"Ġho":370,"gh":371,"lack":372,"ue":373,"irl":374,"Ġco":375,"Ġyoung":376,"Ġblack":377,"Ġbl":378,"Ġgirl":379,"Ġfro":380,"um":381,"Ġsh":382,"Ġwhile":383,"Ġhis":384,"Ġwal":385,"Ġblue":386,"Ġdog":387,"lding":388,"ts":389,"ver":390,"Ġout":391,"Ġboy":392,"Ġred":393,"Ġwat":394,"us":395,"oo":396,"ce":397,"ri":398,"Ġsitting":399,"hild":400,"round":401,"Ġro":402,"Ġstanding":403,"up":404,"Ġloo":405,"Ġstre":406,"Ġchild":407,"Ġmen":408,"il":409,"Ġplaying":410,"am":411,"ard":412,"Ġe":413,"ad":414,"Ġstreet":415,"roup":416,"nt":417,"Ġdown":418,"se":419,"Ġfront":420,"Ġgroup":421,"Ġla":422,"ree":423,"Ġbe":424,"Ġas":425,"Ġher":426,"Ġsm":427,"ow":428,"Ġwalking":429,"low":430,"ome":431,"ks":432,"Ġholding":433,"ent":434,"ke":435,"ll":436,"Ġha":437,"Ġpa":438,"ve":439,"Ġta":440,"bo":441,"Ġgra":442,"ress":443,"ion":444,"ct":445,"Ġpo":446,"Ġwater":447,"Ġk":448,"to":449,"side":450,"Ġcar":451,"Ġch":452,"ie":453,"Ġdress":454,"one":455,"ying":456,"Ġback":457,"Ġbu":458,"im":459,"Ġby":460,"Ġsome":461,"Ġup":462,"the":463,"ump":464,"reen":465,"Ġwor":466,"Ġra":467,"Ġma":468,"Ġrun":469,"Ġfor":470,"Ġone":471,"tle":472,"ark":473,"Ġne":474,"uit":475,"Ġle":476,"Ġgreen":477,"ack":478,"Ġsw":479,"ght":480,"for":481,"Ġjump":482,"Ġlooking":483,"Ġsk":484,"ind":485,"ay":486,"form":487,"Ġbro":488,"Ġrid":489,"Ġcro":490,"Ġhat":491,"Ġmo":492,"ble":493,"Ġwomen":494,"ittle":495,"Ġsn":496,"arge":497,"Ġbi":498,"ren":499,"Ġor":500,"ood":501,"Ġoutside":502,"each":503,"Ġlarge":504,"Ġv":505,"three":506,"ellow":507,"erson":508,"Ġside":509,"Ġyellow":510,"ball":511,"Ġover":512,"Ġbrown":513,"rough":514,"Ġtwo":515,"Ġlittle":516,"Ġsp":517,"ul":518,"Ġthrough":519,"man":520,"Ġsnow":521,"ain":522,"ure":523,"Ġperson":524,"Ġball":525,"Ġtra":526,"Ġhand":527,"ian":528,"lass":529,"air":530,"Ġfrom":531,"Ġtheir":532,"Ġcon":533,"cle":534,"Ġother":535,"ly":536,"ning":537,"em":538,"xt":539,"ink":540,"lder":541,"Ġbui":542,"Ġchildren":543,"Ġwatch":544,"Ġbuilding":545,"Ġjack":546,"Ġnext":547,"Ġinto":548,"Ġwa":549,"Ġjacket":550,"ph":551,"Ġsmall":552,"ground":553,"ight":554,"Ġit":555,"ig":556,"ho":557,"wd":558,"ng":559,"thing":560,"alk":561,"ap":562,"ire":563,"ving":564,"Ġso":565,"Ġnear":566,"Ġcrowd":567,"Ġdressed":568,"people":569,"other":570,"board":571,"Ġgrass":572,"Ġanother":573,"ange":574,"Ġrunning":575,"ore":576,"dy":577,"Ġriding":578,"ter":579,"Ġclo":580,"ead":581,"Ġfa":582,"pp":583,"ate":584,"ru":585,"Ġcam":586,"Ġsc":587,"cer":588,"Ġaround":589,"age":590,"ans":591,"walk":592,"Ġorange":593,"ield":594,"Ġtable":595,"Ġfield":596,"Ġoff":597,"Ġse":598,"ycle":599,"lasses":600,"Ġgo":601,"ist":602,"rying":603,"Ġstands":604,"ture":605,"as":606,"Ġbeach":607,"ick":608,"Ġper":609,"ep":610,"Ġbackground":611,"Ġpink":612,"hind":613,"Ġbehind":614,"Ġair":615,"Ġsidewalk":616,"ff":617,"les":618,"ity":619,"ine":620,"Ġblo":621,"Ġsun":622,"Ġwork":623,"Ġjumping":624,"tain":625,"Ġun":626,"Ġperform":627,"Ġpic":628,"Ġshor":629,"Ġsits":630,"Ġtop":631,"Ġhead":632,"Ġrock":633,"by":634,"Ġcamer":635,"und":636,"iling":637,"Ġgirls":638,"Ġbike":639,"Ġthat":640,"Ġsur":641,"cing":642,"Ġdr":643,"Ġwall":644,"do":645,"Ġpicture":646,"ating":647,"Ġlooks":648,"Ġpark":649,"way":650,"Ġhair":651,"Ġli":652,"Ġcl":653,"ice":654,"Ġcamera":655,"Ġtal":656,"Ġwood":657,"ves":658,"ud":659,"our":660,"ants":661,"Ġcity":662,"Ġsho":663,"uitar":664,"Ġguitar":665,"Ġdogs":666,"Ġbus":667,"Ġcom":668,"Ġje":669,"ub":670,"Ġgu":671,"Ġread":672,"Ġplayer":673,"ling":674,"irt":675,"est":676,"ountain":677,"Ġhim":678,"ame":679,"Ġhas":680,"ction":681,"ors":682,"ool":683,"Ġdan":684,"Ġgray":685,"Ġbic":686,"Ġworking":687,"Ġsoc":688,"Ġshorts":689,"ish":690,"Ġhold":691,"Ġalo":692,"ol":693,"Ġasian":694,"Ġsomething":695,"veral":696,"phone":697,"mp":698,"Ġolder":699,"Ġhel":700,"Ġmid":701,"Ġpar":702,"Ġtalking":703,"Ġsoccer":704,"Ġcolo":705,"Ġwalk":706,"Ġar":707,"Ġbri":708,"sk":709,"Ġblond":710,"shirt":711,"qu":712,"Ġuni":713,"Ġpants":714,"Ġwalks":715,"Ġben":716,"ip":717,"ant":718,"oot":719,"Ġac":720,"Ġskate":721,"Ġwh":722,"dle":723,"Ġthem":724,"Ġguy":725,"ation":726,"Ġjeans":727,"Ġuniform":728,"Ġsmiling":729,"Ġplays":730,"ign":731,"Ġlady":732,"Ġboys":733,"gg":734,"ive":735,"ee":736,"Ġbench":737,"eat":738,"Ġalong":739,"Ġpre":740,"kes":741,"are":742,"Ġroad":743,"Ġad":744,"Ġswim":745,"Ġbicycle":746,"Ġhe":747,"Ġsuit":748,"led":749,"Ġbr":750,"rip":751,"Ġfood":752,"atch":753,"gs":754,"Ġboo":755,"gether":756,"umb":757,"Ġgame":758,"Ġcarrying":759,"Ġtogether":760,"Ġsand":761,"Ġholds":762,"Ġpur":763,"Ġflo":764,"Ġpro":765,"imb":766,"ull":767,"ward":768,"Ġskateboard":769,"Ġdark":770,"ale":771,"Ġus":772,"Ġund":773,"Ġoutdo":774,"Ġbase":775,"Ġabo":776,"four":777,"sing":778,"Ġget":779,"Ġpain":780,"eam":781,"Ġunder":782,"Ġclimb":783,"Ġcomp":784,"Ġface":785,"pe":786,"Ġtan":787,"tor":788,"Ġmountain":789,"sh":790,"Ġglasses":791,"Ġdirt":792,"uth":793,"Ġbaby":794,"Ġstage":795,"Ġen":796,"Ġarm":797,"Ġstrip":798,"ful":799,"Ġsign":800,"Ġmus":801,"Ġlong":802,"Ġhands":803,"Ġwait":804,"Ġsing":805,"Ġchair":806,"Ġbal":807,"ather":808,"Ġkid":809,"ell":810,"Ġboat":811,"Ġcoat":812,"Ġpool":813,"Ġmic":814,"Ġdoing":815,"Ġwho":816,"Ġtree":817,"Ġtaking":818,"ence":819,"Ġjumps":820,"Ġwatching":821,"ies":822,"Ġca":823,"stru":824,"wom":825,"Ġte":826,"ross":827,"Ġold":828,"Ġfoot":829,"Ġcoup":830,"Ġmicro":831,"Ġwind":832,"Ġeach":833,"met":834,"Ġteam":835,"Ġfem":836,"ust":837,"Ġhor":838,"mer":839,"Ġtshirt":840,"Ġsweat":841,"Ġground":842,"Ġshop":843,"Ġarea":844,"Ġbask":845,"Ġhelmet":846,"Ġbasket":847,"ft":848,"ple":849,"Ġday":850,"Ġbar":851,"several":852,"Ġcouple":853,"Ġbaseball":854,"Ġex":855,"Ġmouth":856,"ey":857,"ach":858,"red":859,"Ġde":860,"ric":861,"ess":862,"Ġche":863,"ha":864,"Ġband":865,"Ġtri":866,"Ġve":867,"Ġfl":868,"Ġmotor":869,"Ġbeing":870,"Ġpho":871,"uring":872,"Ġphoto":873,"Ġlook":874,"ping":875,"Ġmale":876,"struction":877,"Ġcap":878,"Ġrace":879,"Ġstriped":880,"Ġperforming":881,"glasses":882,"ents":883,"Ġmiddle":884,"Ġcolor":885,"Ġmusic":886,"Ġtoy":887,"Ġroom":888,"Ġsurf":889,"Ġpurple":890,"ag":891,"eel":892,"Ġfemale":893,"Ġacross":894,"Ġswing":895,"ry":896,"Ġop":897,"oking":898,"Ġtoward":899,"ired":900,"Ġhorse":901,"young":902,"Ġsunglasses":903,"Ġaf":904,"Ġwindow":905,"Ġrest":906,"Ġshe":907,"Ġcross":908,"Ġset":909,"ush":910,"cl":911,"Ġstore":912,"Ġeating":913,"Ġapp":914,"Ġsa":915,"Ġag":916,"dd":917,"Ġmar":918,"ere":919,"row":920,"Ġcover":921,"Ġruns":922,"ming":923,"there":924,"cks":925,"Ġgather":926,"Ġtrain":927,"Ġfootball":928,"ner":929,"Ġtre":930,"Ġfla":931,"Ġart":932,"ment":933,"men":934,"enn":935,"Ġits":936,"Ġusing":937,"Ġob":938,"Ġreading":939,"itch":940,"Ġmicrophone":941,"Ġfish":942,"Ġthree":943,"Ġsl":944,"ennis":945,"Ġdri":946,"jo":947,"Ġprep":948,"ance":949,"Ġtennis":950,"ect":951,"Ġstick":952,"str":953,"use":954,"ted":955,"Ġmark":956,"aring":957,"iv":958,"Ġflow":959,"Ġplayers":960,"ang":961,"Ġall":962,"Ġbag":963,"Ġconstruction":964,"Ġcatch":965,"Ġfloor":966,"Ġkn":967,"Ġmotorc":968,"Ġsle":969,"Ġwatches":970,"rel":971,"Ġadul":972,"Ġri":973,"ile":974,"Ġwooden":975,"Ġagain":976,"Ġno":977,"Ġrides":978,"Ġfore":979,"cean":980,"Ġagainst":981,"Ġocean":982,"Ġcan":983,"woman":984,"Ġfire":985,"Ġopen":986,"Ġenjo":987,"Ġshow":988,"Ġpast":989,"Ġfr":990,"Ġabout":991,"Ġbasketball":992,"fit":993,"ort":994,"ated":995,"ley":996,"boy":997,"lderly":998,"Ġbright":999,"Ġdancing":1000,"Ġcloth":1001,"aur":1002,"Ġduring":1003,"Ġdrin":1004,"ade":1005,"Ġclothing":1006,"ces":1007,"Ġcou":1008,"Ġoutfit":1009,"Ġcle":1010,"aning":1011,"Ġhigh":1012,"Ġmarket":1013,"Ġbusy":1014,"Ġwaiting":1015,"Ġpart":1016,"Ġclimbing":1017,"Ġsurround":1018,"Ġgetting":1019,"haired":1020,"io":1021,"very":1022,"per":1023,"Ġtrees":1024,"Ġhaving":1025,"Ġrestaur":1026,"Ġdis":1027,"Ġswimming":1028,"Ġhill":1029,"stum":1030,"Ġkids":1031,"Ġelderly":1032,"ial":1033,"Ġoutdoor":1034,"ix":1035,"Ġrestaurant":1036,"umbrel":1037,"umbrella":1038,"co":1039,"Ġumbrella":1040,"Ġcostum":1041,"Ġshirts":1042,"Ġworkers":1043,"kers":1044,"Ġnew":1045,"Ġmaking":1046,"Ġcolorful":1047,"Ġmotorcycle":1048,"Ġdes":1049,"Ġlight":1050,"Ġposing":1051,"Ġpass":1052,"thers":1053,"ugh":1054,"strum":1055,"Ġinstrum":1056,"Ġthey":1057,"Ġinside":1058,"less":1059,"ruck":1060,"ler":1061,"Ġbow":1062,"Ġthrow":1063,"Ġcovered":1064,"Ġsinging":1065,"Ġtrying":1066,"Ġfence":1067,"Ġfe":1068,"Ġbear":1069,"Ġpie":1070,"vel":1071,"Ġcell":1072,"utting":1073,"Ġsleep":1074,"ily":1075,"Ġbrick":1076,"Ġski":1077,"Ġline":1078,"some":1079,"vers":1080,"fe":1081,"ycl":1082,"sc":1083,"Ġpath":1084,"pla":1085,"Ġbes":1086,"Ġev":1087,"Ġice":1088,"Ġhats":1089,"Ġkick":1090,"Ġbook":1091,"ny":1092,"Ġatt":1093,"ker":1094,"ron":1095,"Ġdi":1096,"Ġbig":1097,"Ġcow":1098,"Ġboard":1099,"Ġride":1100,"child":1101,"Ġvery":1102,"Ġpol":1103,"Ġtowards":1104,"od":1105,"Ġsweater":1106,"Ġcart":1107,"Ġhu":1108,"gra":1109,"Ġam":1110,"Ġbeside":1111,"Ġlake":1112,"Ġal":1113,"Ġnight":1114,"Ġbody":1115,"pack":1116,"Ġroll":1117,"itchen":1118,"Ġkitchen":1119,"Ġtruck":1120,"Ġsurrounded":1121,"Ġriver":1122,"Ġclothes":1123,"Ġcellphone":1124,"cket":1125,"Ġmet":1126,"Ġgrassy":1127,"Ġbackpack":1128,"Ġcor":1129,"Ġlaying":1130,"Ġpush":1131,"Ġhang":1132,"Ġarms":1133,"this":1134,"ition":1135,"Ġjo":1136,"Ġoutdoors":1137,"Ġtrack":1138,"Ġcre":1139,"als":1140,"Ġlaugh":1141,"ican":1142,"Ġcompet":1143,"Ġstair":1144,"Ġind":1145,"Ġvest":1146,"Ġdrum":1147,"hone":1148,"Ġothers":1149,"rie":1150,"ses":1151,"ird":1152,"Ġbeard":1153,"graph":1154,"ne":1155,"ong":1156,"Ġatte":1157,"Ġtank":1158,"Ġsub":1159,"Ġmach":1160,"ckey":1161,"Ġpiece":1162,"ding":1163,"Ġbot":1164,"ak":1165,"ject":1166,"ys":1167,"cor":1168,"iz":1169,"Ġpainting":1170,"Ġme":1171,"iew":1172,"ines":1173,"we":1174,"Ġstep":1175,"Ġhard":1176,"Ġcolored":1177,"unch":1178,"Ġbox":1179,"iles":1180,"Ġshopping":1181,"Ġpaper":1182,"Ġbrid":1183,"ears":1184,"Ġseveral":1185,"Ġwheel":1186,"Ġele":1187,"ca":1188,"Ġtr":1189,"Ġphotograph":1190,"sp":1191,"Ġtrick":1192,"Ġpull":1193,"Ġabove":1194,"Ġfull":1195,"Ġpl":1196,"Ġtodd":1197,"Ġstone":1198,"Ġuniforms":1199,"able":1200,"Ġenjoying":1201,"Ġlea":1202,"Ġevent":1203,"five":1204,"Ġmany":1205,"Ġsnowy":1206,"Ġgi":1207,"Ġhanging":1208,"de":1209,"Ġworker":1210,"Ġtur":1211,"ym":1212,"Ġcoun":1213,"Ġdrinking":1214,"Ġmetal":1215,"ons":1216,"Ġready":1217,"Ġpra":1218,"Ġfil":1219,"Ġdoor":1220,"children":1221,"Ġey":1222,"Ġbre":1223,"Ġamer":1224,"nds":1225,"na":1226,"Ġhouse":1227,"Ġshoes":1228,"Ġpoin":1229,"rican":1230,"ved":1231,"Ġsleeping":1232,"room":1233,"stic":1234,"Ġafter":1235,"ists":1236,"ching":1237,"Ġtakes":1238,"many":1239,"Ġaway":1240,"ank":1241,"Ġonto":1242,"Ġsha":1243,"br":1244,"Ġsnowboard":1245,"Ġdra":1246,"Ġright":1247,"ates":1248,"elling":1249,"Ġlike":1250,"Ġtoddler":1251,"Ġgathered":1252,"Ġpole":1253,"Ġspea":1254,"Ġgoing":1255,"Ġlap":1256,"Ġguys":1257,"Ġphone":1258,"Ġbridge":1259,"Ġrain":1260,"Ġwave":1261,"Ġnumb":1262,"Ġrocks":1263,"Ġleap":1264,"Ġteen":1265,"ane":1266,"Ġshou":1267,"Ġdance":1268,"Ġsmiles":1269,"igh":1270,"Ġfam":1271,"ones":1272,"Ġview":1273,"Ġboth":1274,"Ġsky":1275,"ium":1276,"lic":1277,"Ġrope":1278,"ult":1279,"Ġadults":1280,"bble":1281,"Ġleaning":1282,"Ġsteps":1283,"Ġcowboy":1284,"Ġlot":1285,"ement":1286,"wing":1287,"arf":1288,"Ġflowers":1289,"Ġamerican":1290,"Ġconc":1291,"Ġsubway":1292,"Ġpose":1293,"Ġgym":1294,"Ġcomput":1295,"Ġcrowded":1296,"ious":1297,"gging":1298,"Ġfountain":1299,"Ġwhat":1300,"Ġbet":1301,"Ġleft":1302,"Ġattemp":1303,"Ġafrican":1304,"Ġfour":1305,"Ġclass":1306,"ill":1307,"kin":1308,"Ġgear":1309,"ps":1310,"Ġcur":1311,"Ġpreparing":1312,"Ġfrie":1313,"ats":1314,"ot":1315,"Ġskirt":1316,"Ġvol":1317,"Ġap":1318,"ersey":1319,"hair":1320,"ty":1321,"ary":1322,"Ġstud":1323,"Ġjersey":1324,"Ġhave":1325,"Ġflag":1326,"Ġwin":1327,"Ġfamily":1328,"Ġsqu":1329,"Ġdispla":1330,"Ġwet":1331,"Ġsunny":1332,"Ġwhich":1333,"ier":1334,"Ġhockey":1335,"Ġcostume":1336,"Ġfo":1337,"Ġfishing":1338,"ween":1339,"Ġhit":1340,"Ġracing":1341,"Ġbetween":1342,"sel":1343,"Ġpub":1344,"Ġstop":1345,"Ġbea":1346,"Ġcarri":1347,"Ġcra":1348,"Ġdist":1349,"Ġopp":1350,"ime":1351,"Ġconvers":1352,"iting":1353,"Ġballo":1354,"Ġmake":1355,"Ġpract":1356,"ned":1357,"Ġpolice":1358,"Ġwr":1359,"ffit":1360,"girl":1361,"Ġnumber":1362,"ening":1363,"Ġprepare":1364,"Ġglass":1365,"Ġchairs":1366,"Ġequ":1367,"Ġgraffit":1368,"Ġlaughing":1369,"ster":1370,"Ġmachine":1371,"Ġpublic":1372,"Ġsetting":1373,"Ġbut":1374,"Ġhome":1375,"Ġfris":1376,"Ġcorner":1377,"Ġfrisb":1378,"Ġmatch":1379,"Ġgold":1380,"Ġforest":1381,"Ġshirtless":1382,"ings":1383,"Ġgri":1384,"Ġbed":1385,"Ġinstruments":1386,"Ġvolley":1387,"Ġsweatshirt":1388,"suit":1389,"Ġcig":1390,"Ġplaid":1391,"Ġdrink":1392,"let":1393,"Ġcouch":1394,"hicle":1395,"Ġhood":1396,"Ġbottle":1397,"Ġvolleyball":1398,"bor":1399,"uti":1400,"entle":1401,"Ġvehicle":1402,"Ġfrisbee":1403,"ience":1404,"roll":1405,"att":1406,"Ġstairs":1407,"Ġtrail":1408,"Ġsil":1409,"Ġbags":1410,"Ġrail":1411,"con":1412,"Ġtall":1413,"Ġappears":1414,"yclist":1415,"Ġcheck":1416,"rete":1417,"Ġplastic":1418,"Ġref":1419,"Ġaud":1420,"Ġblow":1421,"nding":1422,"wor":1423,"art":1424,"Ġed":1425,"Ġglo":1426,"Ġramp":1427,"be":1428,"Ġselling":1429,"Ġconcrete":1430,"Ġlist":1431,"Ġkis":1432,"Ġgraffiti":1433,"ater":1434,"aged":1435,"utiful":1436,"Ġstat":1437,"cture":1438,"get":1439,"Ġcup":1440,"Ġroo":1441,"Ġgentle":1442,"Ġstra":1443,"Ġadult":1444,"Ġseated":1445,"Ġsomeone":1446,"Ġscarf":1447,"Ġequip":1448,"ety":1449,"ally":1450,"Ġmidair":1451,"ber":1452,"shing":1453,"Ġequipment":1454,"Ġoffic":1455,"Ġbird":1456,"Ġcourt":1457,"Ġpat":1458,"Ġcooking":1459,"enter":1460,"aret":1461,"Ġcomputer":1462,"ical":1463,"Ġscen":1464,"Ġwoods":1465,"Ġdoes":1466,"Ġtake":1467,"Ġcigaret":1468,"dies":1469,"Ġslide":1470,"Ġputting":1471,"Ġobject":1472,"ems":1473,"Ġflower":1474,"arm":1475,"Ġbeautiful":1476,"Ġpad":1477,"Ġedge":1478,"loo":1479,"Ġstru":1480,"chool":1481,"Ġfruit":1482,"Ġpushing":1483,"Ġworks":1484,"Ġgrill":1485,"Ġmountains":1486,"ctor":1487,"Ġnet":1488,"Ġboots":1489,"Ġshore":1490,"Ġspor":1491,"Ġpictures":1492,"ope":1493,"Ġnearby":1494,"Ġdistance":1495,"ug":1496,"uff":1497,"Ġthere":1498,"eep":1499,"Ġser":1500,"Ġshort":1501,"Ġthrowing":1502,"Ġelect":1503,"top":1504,"women":1505,"out":1506,"Ġjust":1507,"Ġapron":1508,"head":1509,"Ġstroll":1510,"ches":1511,"asian":1512,"Ġhors":1513,"Ġposes":1514,"phones":1515,"Ġwhere":1516,"Ġreach":1517,"Ġbikes":1518,"Ġshovel":1519,"ined":1520,"Ġbat":1521,"Ġgar":1522,"Ġchas":1523,"Ġbuildings":1524,"little":1525,"Ġrider":1526,"Ġwinter":1527,"Ġanim":1528,"pping":1529,"Ġperforms":1530,"Ġeyes":1531,"Ġcigarette":1532,"iff":1533,"Ġpick":1534,"Ġplayground":1535,"attoo":1536,"Ġstation":1537,"Ġcrossing":1538,"Ġaudience":1539,"Ġfall":1540,"Ġladies":1541,"Ġbucket":1542,"Ġpulling":1543,"Ġkneel":1544,"Ġemp":1545,"ery":1546,"Ġtattoo":1547,"Ġskateboarder":1548,"Ġinstrument":1549,"Ġlawn":1550,"os":1551,"ins":1552,"Ġpres":1553,"Ġspla":1554,"Ġnewsp":1555,"Ġnewspap":1556,"Ġschool":1557,"Ġsmoking":1558,"Ġrais":1559,"Ġstatue":1560,"Ġhorses":1561,"ests":1562,"Ġpainted":1563,"Ġleaves":1564,"Ġpractic":1565,"pped":1566,"ggles":1567,"Ġmusician":1568,"Ġparty":1569,"Ġcol":1570,"Ġvar":1571,"Ġsaf":1572,"ids":1573,"Ġfun":1574,"upp":1575,"Ġrocky":1576,"Ġparade":1577,"ite":1578,"Ġdriving":1579,"ining":1580,"ese":1581,"Ġslid":1582,"ring":1583,"Ġconcer":1584,"fla":1585,"Ġyard":1586,"Ġcleaning":1587,"du":1588,"ven":1589,"Ġfilled":1590,"Ġlying":1591,"ash":1592,"Ġdisplay":1593,"ail":1594,"Ġgiving":1595,"Ġcream":1596,"ading":1597,"Ġmud":1598,"Ġcutting":1599,"Ġbeer":1600,"Ġstructure":1601,"Ġsafety":1602,"Ġblank":1603,"Ġveget":1604,"Ġfew":1605,"Ġvend":1606,"Ġroof":1607,"iness":1608,"Ġbubble":1609,"Ġmakes":1610,"Ġgr":1611,"Ġgoal":1612,"rest":1613,"Ġform":1614,"az":1615,"vy":1616,"lee":1617,"Ġmart":1618,"Ġconcert":1619,"looking":1620,"Ġland":1621,"Ġbull":1622,"Ġsmile":1623,"Ġhapp":1624,"Ġwe":1625,"Ġcla":1626,"ught":1627,"Ġplat":1628,"Ġvi":1629,"Ġgloves":1630,"Ġrela":1631,"Ġcheer":1632,"Ġear":1633,"Ġdock":1634,"Ġcarries":1635,"Ġblanket":1636,"Ġres":1637,"key":1638,"Ġcars":1639,"Ġneck":1640,"ival":1641,"group":1642,"Ġgentleman":1643,"Ġpaint":1644,"ike":1645,"Ġdire":1646,"Ġfriends":1647,"Ġban":1648,"Ġshowing":1649,"Ġshoulder":1650,"Ġbreak":1651,"ators":1652,"ctive":1653,"Ġcont":1654,"Ġblondhair":1655,"deo":1656,"ging":1657,"Ġcir":1658,"Ġbusiness":1659,"Ġreads":1660,"Ġsea":1661,"Ġmem":1662,"Ġjackets":1663,"Ġmartial":1664,"Ġpot":1665,"Ġroller":1666,"Ġdrums":1667,"Ġmult":1668,"cting":1669,"ser":1670,"Ġmil":1671,"Ġdig":1672,"Ġladd":1673,"Ġrailing":1674,"Ġnewspaper":1675,"Ġsuits":1676,"if":1677,"Ġce":1678,"ched":1679,"Ġcounter":1680,"Ġflip":1681,"Ġdrinks":1682,"Ġvegetable":1683,"Ġhot":1684,"Ġcostumes":1685,"Ġbowl":1686,"ban":1687,"cu":1688,"Ġamong":1689,"Ġmask":1690,"mo":1691,"ugg":1692,"Ġvests":1693,"Ġbunch":1694,"Ġrodeo":1695,"Ġparked":1696,"ivid":1697,"Ġbowling":1698,"ette":1699,"Ġgoggles":1700,"Ġsports":1701,"Ġclose":1702,"Ġfacing":1703,"Ġpointing":1704,"Ġfix":1705,"lookers":1706,"so":1707,"Ġwrest":1708,"Ġdresses":1709,"Ġdecor":1710,"Ġhar":1711,"Ġbathing":1712,"someone":1713,"Ġprepares":1714,"Ġpracticing":1715,"Ġarts":1716,"ath":1717,"Ġmother":1718,"Ġtalks":1719,"set":1720,"Ġfeet":1721,"Ġdiff":1722,"Ġalley":1723,"Ġinter":1724,"Ġbare":1725,"ural":1726,"uck":1727,"Ġmon":1728,"Ġteams":1729,"Ġlistening":1730,"Ġtent":1731,"Ġyo":1732,"Ġspect":1733,"cts":1734,"Ġcliff":1735,"Ġflying":1736,"fore":1737,"Ġwed":1738,"erent":1739,"Ġkay":1740,"Ġswinging":1741,"Ġelectric":1742,"ped":1743,"Ġmiddleaged":1744,"Ġsnowboarder":1745,"Ġbiker":1746,"Ġflags":1747,"ige":1748,"try":1749,"Ġqu":1750,"Ġput":1751,"Ġsurfer":1752,"Ġscene":1753,"Ġty":1754,"Ġligh":1755,"Ġladder":1756,"ok":1757,"person":1758,"Ġpile":1759,"Ġparking":1760,"Ġdifferent":1761,"Ġint":1762,"Ġtrun":1763,"Ġrelax":1764,"Ġcoff":1765,"Ġdesk":1766,"Ġvendor":1767,"ced":1768,"nic":1769,"ise":1770,"Ġfol":1771,"Ġbikin":1772,"Ġwaves":1773,"ns":1774,"Ġgro":1775,"Ġonlookers":1776,"Ġsurfboard":1777,"Ġwedding":1778,"foot":1779,"Ġstaring":1780,"lored":1781,"Ġcoffee":1782,"bb":1783,"Ġim":1784,"Ġbra":1785,"vert":1786,"Ġchi":1787,"Ġtime":1788,"der":1789,"Ġcoll":1790,"Ġrow":1791,"Ġprodu":1792,"Ġspeaking":1793,"Ġtub":1794,"Ġbefore":1795,"yclists":1796,"Ġlaptop":1797,"Ġlit":1798,"Ġyounger":1799,"Ġtalk":1800,"Ġleather":1801,"ividu":1802,"Ġrep":1803,"Ġath":1804,"Ġlife":1805,"Ġskateboarding":1806,"Ġtie":1807,"Ġleans":1808,"mb":1809,"Ġcut":1810,"Ġleg":1811,"Ġlegs":1812,"Ġforeground":1813,"Ġconversation":1814,"Ġsilver":1815,"Ġviol":1816,"me":1817,"rin":1818,"Ġsort":1819,"Ġblock":1820,"Ġkicking":1821,"Ġattire":1822,"Ġempty":1823,"ia":1824,"ars":1825,"Ġfing":1826,"ens":1827,"itary":1828,"yard":1829,"cers":1830,"Ġpurse":1831,"Ġsled":1832,"ulp":1833,"Ġobser":1834,"Ġpitch":1835,"Ġcement":1836,"rist":1837,"Ġsay":1838,"ely":1839,"Ġspra":1840,"Ġsame":1841,"Ġindividu":1842,"Ġspectators":1843,"Ġped":1844,"Ġtow":1845,"els":1846,"Ġoverlooking":1847,"Ġitems":1848,"Ġscreen":1849,"Ġshot":1850,"Ġindian":1851,"Ġleaps":1852,"Ġexam":1853,"Ġvarious":1854,"Ġspe":1855,"Ġcompetition":1856,"ger":1857,"Ġcal":1858,"Ġgun":1859,"Ġclimbs":1860,"sed":1861,"Ġcard":1862,"Ġfur":1863,"eath":1864,"case":1865,"Ġwriting":1866,"urse":1867,"Ġgard":1868,"Ġtou":1869,"Ġsculp":1870,"ession":1871,"Ġnot":1872,"Ġled":1873,"Ġdin":1874,"Ġthis":1875,"Ġplace":1876,"Ġsmo":1877,"Ġoutfits":1878,"Ġattempting":1879,"Ġanimal":1880,"Ġkneeling":1881,"Ġway":1882,"ied":1883,"Ġcr":1884,"Ġlined":1885,"Ġairp":1886,"Ġgets":1887,"Ġmeal":1888,"allow":1889,"Ġloc":1890,"Ġtables":1891,"Ġsigns":1892,"Ġshad":1893,"Ġbicycles":1894,"Ġskier":1895,"ace":1896,"six":1897,"ton":1898,"Ġgood":1899,"Ġballoon":1900,"Ġwears":1901,"Ġsweep":1902,"Ġstudents":1903,"Ġviolin":1904,"urban":1905,"Ġmusical":1906,"lf":1907,"Ġmed":1908,"Ġcas":1909,"Ġchrist":1910,"ighting":1911,"gu":1912,"Ġindo":1913,"Ġcand":1914,"Ġdarkhaired":1915,"Ġtries":1916,"Ġbikini":1917,"ken":1918,"Ġcat":1919,"Ġstreets":1920,"Ġgolf":1921,"estri":1922,"Ġstroller":1923,"Ġchasing":1924,"Ġgrocer":1925,"mas":1926,"ony":1927,"Ġsite":1928,"icip":1929,"Ġbearded":1930,"cord":1931,"lders":1932,"ico":1933,"ous":1934,"rown":1935,"Ġhea":1936,"inese":1937,"Ġtire":1938,"Ġbride":1939,"Ġgarb":1940,"Ġplatform":1941,"Ġvegetables":1942,"arate":1943,"Ġsings":1944,"Ġsurfing":1945,"Ġbur":1946,"erman":1947,"ffic":1948,"Ġhelmets":1949,"Ġkissing":1950,"Ġsays":1951,"Ġfighting":1952,"Ġbalan":1953,"Ġgathering":1954,"Ġartist":1955,"Ġbel":1956,"Ġincl":1957,"Ġcountry":1958,"aff":1959,"bs":1960,"Ġwra":1961,"Ġham":1962,"Ġbath":1963,"Ġprote":1964,"Ġeng":1965,"Ġbald":1966,"ness":1967,"Ġshi":1968,"lebr":1969,"Ġtool":1970,"Ġsunset":1971,"nel":1972,"Ġtee":1973,"Ġcontain":1974,"ape":1975,"Ġbrush":1976,"ners":1977,"Ġmeat":1978,"Ġfaces":1979,"Ġclown":1980,"Ġblowing":1981,"Ġcelebr":1982,"band":1983,"unette":1984,"ooter":1985,"Ġleash":1986,"ized":1987,"full":1988,"read":1989,"Ġmir":1990,"Ġtour":1991,"Ġvide":1992,"Ġwalkway":1993,"Ġchristmas":1994,"Ġenter":1995,"Ġgre":1996,"alle":1997,"Ġsold":1998,"Ġadvert":1999,"Ġcake":2000,"Ġmilitary":2001,"Ġstar":2002,"Ġuses":2003,"Ġclassroom":2004,"Ġballoons":2005,"fully":2006,"osing":2007,"sm":2008,"lesc":2009,"Ġcoming":2010,"Ġalone":2011,"Ġresting":2012,"Ġtrunks":2013,"pers":2014,"Ġtracks":2015,"Ġscooter":2016,"Ġsandy":2017,"Ġteenag":2018,"Ġgarden":2019,"Ġledge":2020,"old":2021,"Ġea":2022,"Ġcrou":2023,"Ġpost":2024,"ached":2025,"Ġdiving":2026,"Ġgymna":2027,"Ġmirro":2028,"ert":2029,"Ġtro":2030,"Ġhoop":2031,"Ġvis":2032,"Ġtraffic":2033,"construction":2034,"athon":2035,"Ġadvertis":2036,"Ġpier":2037,"Ġstream":2038,"Ġbubbles":2039,"dition":2040,"ki":2041,"Ġwea":2042,"Ġwooded":2043,"Ġhuge":2044,"Ġcourse":2045,"Ġfollow":2046,"vice":2047,"Ġswings":2048,"Ġshows":2049,"Ġson":2050,"Ġhiking":2051,"Ġproject":2052,"Ġcafe":2053,"Ġexp":2054,"Ġcompeting":2055,"Ġsto":2056,"Ġchinese":2057,"Ġtrash":2058,"Ġpresent":2059,"Ġdirection":2060,"ditional":2061,"Ġteach":2062,"Ġwaving":2063,"Ġcano":2064,"Ġsquare":2065,"Ġlights":2066,"slee":2067,"ute":2068,"ered":2069,"Ġring":2070,"Ġmales":2071,"Ġhelping":2072,"Ġparticip":2073,"Ġstraw":2074,"Ġfest":2075,"Ġplate":2076,"Ġskiing":2077,"Ġrefle":2078,"go":2079,"za":2080,"Ġtown":2081,"Ġbooth":2082,"Ġprot":2083,"Ġurban":2084,"Ġheadphones":2085,"Ġlongslee":2086,"Ġpassing":2087,"Ġofficer":2088,"Ġcollar":2089,"kids":2090,"Ġpe":2091,"Ġstret":2092,"Ġpupp":2093,"dog":2094,"Ġmirror":2095,"elf":2096,"Ġchain":2097,"Ġclear":2098,"Ġopposing":2099,"Ġsliding":2100,"Ġcircle":2101,"tion":2102,"Ġda":2103,"chair":2104,"uddle":2105,"Ġsandals":2106,"Ġfather":2107,"Ġheld":2108,"Ġmicrosc":2109,"ustom":2110,"Ġbrightly":2111,"Ġteenage":2112,"Ġtype":2113,"Ġstad":2114,"Ġnat":2115,"Ġlow":2116,"Ġbrunette":2117,"ba":2118,"Ġpea":2119,"Ġmade":2120,"ung":2121,"ental":2122,"Ġchur":2123,"Ġtraditional":2124,"Ġoper":2125,"Ġleaping":2126,"Ġmultico":2127,"Ġsculpture":2128,"Ġstadium":2129,"Ġass":2130,"Ġslo":2131,"Ġfight":2132,"Ġrug":2133,"Ġkarate":2134,"Ġmusicians":2135,"tail":2136,"Ġprin":2137,"Ġwaters":2138,"Ġmarathon":2139,"bers":2140,"Ġtun":2141,"Ġstuff":2142,"Ġlab":2143,"Ġbarefoot":2144,"Ġshallow":2145,"Ġskating":2146,"Ġinclud":2147,"Ġtack":2148,"Ġperformance":2149,"Ġwaits":2150,"Ġdoorway":2151,"Ġpack":2152,"Ġchef":2153,"Ġchurch":2154,"Ġpadd":2155,"Ġpul":2156,"Ġmag":2157,"Ġseen":2158,"Ġvideo":2159,"black":2160,"tom":2161,"Ġsplash":2162,"ales":2163,"wh":2164,"Ġkha":2165,"Ġshoulders":2166,"Ġsus":2167,"Ġhal":2168,"Ġhole":2169,"ou":2170,"ral":2171,"Ġwashing":2172,"Ġseat":2173,"Ġprof":2174,"Ġtoys":2175,"Ġenjoy":2176,"Ġturn":2177,"Ġrepair":2178,"Ġfair":2179,"Ġcoats":2180,"Ġcolle":2181,"Ġfixing":2182,"line":2183,"Ġz":2184,"Ġhall":2185,"Ġstun":2186,"Ġballs":2187,"Ġstr":2188,"alls":2189,"Ġna":2190,"Ġupside":2191,"Ġtelesc":2192,"Ġphotographer":2193,"Ġdigging":2194,"Ġfive":2195,"Ġoffice":2196,"Ġsee":2197,"Ġguard":2198,"Ġsell":2199,"Ġpond":2200,"whi":2201,"Ġfen":2202,"ets":2203,"Ġwindows":2204,"Ġsticks":2205,"Ġbottom":2206,"lead":2207,"leep":2208,"Ġgian":2209,"Ġtramp":2210,"Ġdirty":2211,"Ġattached":2212,"Ġhugging":2213,"acle":2214,"Ġbelow":2215,"Ġaccord":2216,"Ġhappy":2217,"cuss":2218,"Ġaccordion":2219,"Ġkind":2220,"Ġbooks":2221,"Ġdeck":2222,"Ġcanoe":2223,"cy":2224,"Ġva":2225,"oline":2226,"Ġtrans":2227,"work":2228,"spe":2229,"zz":2230,"Ġi":2231,"Ġthird":2232,"Ġdish":2233,"Ġhur":2234,"Ġeat":2235,"Ġumbrellas":2236,"Ġdesert":2237,"Ġmakeup":2238,"light":2239,"Ġthrows":2240,"Ġmulticolored":2241,"Ġwell":2242,"Ġstare":2243,"Ġlaund":2244,"Ġbeige":2245,"ient":2246,"Ġasleep":2247,"Ġlead":2248,"Ġmoving":2249,"Ġtrampoline":2250,"fts":2251,"Ġori":2252,"Ġnose":2253,"Ġmembers":2254,"Ġgrocery":2255,"Ġgiant":2256,"Ġreaching":2257,"allen":2258,"Ġmicroscope":2259,"Ġround":2260,"Ġcrying":2261,"lete":2262,"Ġperformer":2263,"Ġswimsuit":2264,"Ġdrawing":2265,"Ġwetsuit":2266,"Ġcustom":2267,"Ġter":2268,"nded":2269,"Ġhow":2270,"Ġscaff":2271,"ipe":2272,"Ġcatching":2273,"Ġfriend":2274,"ering":2275,"Ġshoo":2276,"Ġpair":2277,"Ġrunner":2278,"Ġdeep":2279,"back":2280,"Ġes":2281,"Ġpan":2282,"Ġcook":2283,"Ġlays":2284,"Ġhimsel":2285,"Ġrelaxing":2286,"Ġdinner":2287,"Ġhimself":2288,"Ġwaterf":2289,"Ġproduce":2290,"Ġtelescope":2291,"road":2292,"Ġtricks":2293,"Ġjogging":2294,"Ġhoodie":2295,"Ġinfla":2296,"Ġdry":2297,"Ġathlet":2298,"inish":2299,"Ġfra":2300,"Ġvan":2301,"wards":2302,"bla":2303,"que":2304,"Ġmat":2305,"cking":2306,"stre":2307,"Ġemb":2308,"neath":2309,"ual":2310,"yle":2311,"Ġtw":2312,"orch":2313,"Ġredhair":2314,"Ġunderneath":2315,"Ġattempts":2316,"Ġsweeping":2317,"lers":2318,"pes":2319,"stacle":2320,"Ġheads":2321,"ages":2322,"Ġobstacle":2323,"Ġcatches":2324,"Ġmust":2325,"Ġclosed":2326,"Ġdiscuss":2327,"Ġmatching":2328,"Ġsuspe":2329,"fight":2330,"Ġinf":2331,"Ġcenter":2332,"arrow":2333,"Ġste":2334,"Ġatop":2335,"Ġend":2336,"Ġgolden":2337,"estrians":2338,"Ġpicnic":2339,"Ġtu":2340,"Ġunderw":2341,"Ġsax":2342,"scape":2343,"Ġfalling":2344,"ten":2345,"Ġact":2346,"Ġwine":2347,"ator":2348,"Ġslee":2349,"Ġeye":2350,"Ġteeth":2351,"Ġstuffed":2352,"Ġpulled":2353,"aired":2354,"clo":2355,"Ġcyclist":2356,"Ġdon":2357,"Ġracket":2358,"Ġdancers":2359,"Ġplants":2360,"Ġofficers":2361,"ughter":2362,"Ġharness":2363,"Ġspeed":2364,"Ġheavy":2365,"Ġfestival":2366,"Ġtong":2367,"arks":2368,"Ġfallen":2369,"Ġdevice":2370,"Ġpushes":2371,"Ġrollerbla":2372,"small":2373,"com":2374,"cross":2375,"Ġdem":2376,"ides":2377,"stand":2378,"ular":2379,"Ġsinger":2380,"Ġclean":2381,"Ġspray":2382,"ds":2383,"these":2384,"Ġmix":2385,"Ġstring":2386,"Ġcho":2387,"Ġbran":2388,"Ġappear":2389,"Ġindividuals":2390,"Ġkhaki":2391,"oufla":2392,"bly":2393,"Ġkey":2394,"Ġdun":2395,"Ġfan":2396,"Ġret":2397,"Ġcamoufla":2398,"Ġgoes":2399,"Ġsplashing":2400,"Ġmuddy":2401,"Ġdecorated":2402,"ible":2403,"Ġpin":2404,"Ġmom":2405,"ital":2406,"ork":2407,"Ġmost":2408,"Ġtravel":2409,"Ġhula":2410,"Ġincluding":2411,"Ġmop":2412,"Ġcri":2413,"Ġcane":2414,"Ġalso":2415,"Ġhalf":2416,"lane":2417,"med":2418,"older":2419,"Ġgroom":2420,"Ġden":2421,"atting":2422,"Ġmove":2423,"Ġbalcon":2424,"Ġprofession":2425,"Ġoriental":2426,"res":2427,"Ġcold":2428,"Ġeats":2429,"Ġdances":2430,"Ġshadow":2431,"Ġtaken":2432,"Ġcast":2433,"Ġcovering":2434,"Ġcurly":2435,"Ġsum":2436,"Ġwhil":2437,"Ġcarn":2438,"Ġappro":2439,"iers":2440,"ino":2441,"Ġmin":2442,"ront":2443,"alm":2444,"Ġjean":2445,"Ġcrosswalk":2446,"Ġmarching":2447,"Ġwhilst":2448,"Ġfre":2449,"Ġfig":2450,"Ġbicyclist":2451,"Ġcamouflage":2452,"uc":2453,"Ġent":2454,"Ġport":2455,"Ġbackyard":2456,"Ġrac":2457,"Ġknit":2458,"Ġstunt":2459,"Ġtongue":2460,"gers":2461,"Ġmu":2462,"Ġlone":2463,"Ġposs":2464,"Ġblouse":2465,"Ġlift":2466,"Ġboats":2467,"Ġexc":2468,"Ġbandan":2469,"Ġmeet":2470,"Ġpoints":2471,"Ġspeaks":2472,"Ġkaya":2473,"Ġfinger":2474,"Ġindoor":2475,"Ġwrapped":2476,"Ġdaughter":2477,"Ġcarnival":2478,"Ġwide":2479,"Ġlog":2480,"ower":2481,"Ġconf":2482,"Ġblondhaired":2483,"Ġcurb":2484,"Ġsaxop":2485,"aw":2486,"act":2487,"ls":2488,"table":2489,"ident":2490,"Ġtele":2491,"leaders":2492,"Ġkeyboard":2493,"fting":2494,"gon":2495,"Ġflies":2496,"Ġkicks":2497,"Ġhooded":2498,"Ġtunnel":2499,"Ġwarm":2500,"Ġmural":2501,"vement":2502,"Ġpouring":2503,"Ġbush":2504,"Ġwheelchair":2505,"Ġpicking":2506,"Ġdenim":2507,"ees":2508,"ics":2509,"Ġrub":2510,"Ġrobe":2511,"Ġhelp":2512,"Ġfemales":2513,"Ġgives":2514,"Ġchecking":2515,"inning":2516,"amer":2517,"Ġpolo":2518,"Ġopening":2519,"Ġrailroad":2520,"Ġairplane":2521,"ast":2522,"Ġpian":2523,"Ġstack":2524,"Ġdoll":2525,"iple":2526,"Ġjugg":2527,"Ġnap":2528,"Ġnice":2529,"Ġpavement":2530,"Ġchest":2531,"Ġhammer":2532,"Ġentertain":2533,"Ġbalcony":2534,"cut":2535,"cus":2536,"Ġsupp":2537,"Ġfinish":2538,"Ġhose":2539,"Ġbever":2540,"Ġspot":2541,"Ġpasses":2542,"Ġsleeps":2543,"place":2544,"ights":2545,"Ġhitting":2546,"girls":2547,"workers":2548,"Ġslides":2549,"Ġpet":2550,"ently":2551,"Ġrunners":2552,"Ġguitars":2553,"Ġbarbe":2554,"Ġcolors":2555,"Ġkayak":2556,"Ġbandanna":2557,"esting":2558,"ersk":2559,"Ġrolling":2560,"Ġpresentation":2561,"own":2562,"Ġmess":2563,"its":2564,"Ġstool":2565,"Ġpaved":2566,"Ġsurface":2567,"Ġinfant":2568,"Ġbeam":2569,"Ġpony":2570,"Ġsoft":2571,"Ġadj":2572,"guy":2573,"Ġgymnast":2574,"ga":2575,"ops":2576,"Ġoveralls":2577,"Ġclimber":2578,"Ġjumpsuit":2579,"Ġdrives":2580,"Ġtouching":2581,"Ġprotective":2582,"Ġnavy":2583,"Ġshooting":2584,"Ġfigure":2585,"Ġpiano":2586,"Ġke":2587,"Ġliving":2588,"quet":2589,"Ġmotorb":2590,"Ġmotorcycles":2591,"Ġrollersk":2592,"Ġraised":2593,"Ġbalancing":2594,"blo":2595,"ina":2596,"Ġinspe":2597,"nder":2598,"ilt":2599,"Ġcarp":2600,"Ġseems":2601,"Ġshoe":2602,"Ġrefer":2603,"Ġlaundry":2604,"Ġbm":2605,"Ġpig":2606,"Ġonly":2607,"Ġknee":2608,"Ġwrestling":2609,"bric":2610,"fire":2611,"wa":2612,"kinned":2613,"udy":2614,"wk":2615,"Ġsim":2616,"Ġbou":2617,"Ġsport":2618,"Ġfabric":2619,"Ġlandscape":2620,"uggage":2621,"Ġslope":2622,"Ġinflatable":2623,"erc":2624,"Ġgaz":2625,"Ġdust":2626,"ited":2627,"Ġluggage":2628,"Ġskis":2629,"Ġputs":2630,"ection":2631,"olding":2632,"Ġpuddle":2633,"Ġmer":2634,"illow":2635,"Ġpos":2636,"Ġpoles":2637,"Ġsewing":2638,"Ġwalls":2639,"Ġswims":2640,"Ġlocal":2641,"Ġrugby":2642,"white":2643,"Ġwaterfall":2644,"dress":2645,"Ġfarm":2646,"Ġhear":2647,"lady":2648,"illa":2649,"lymp":2650,"Ġneckla":2651,"shi":2652,"Ġrou":2653,"Ġpen":2654,"Ġgate":2655,"itor":2656,"onstr":2657,"Ġpapers":2658,"Ġwash":2659,"Ġenjoys":2660,"Ġamus":2661,"Ġimage":2662,"Ġmagaz":2663,"Ġapproach":2664,"irst":2665,"Ġboun":2666,"vered":2667,"ggy":2668,"Ġfloating":2669,"ustic":2670,"Ġpulls":2671,"Ġpeace":2672,"Ġtho":2673,"Ġrob":2674,"Ġhay":2675,"Ġmod":2676,"Ġdancer":2677,"Ġpaints":2678,"Ġoppon":2679,"Ġoppos":2680,"Ġbutton":2681,"artment":2682,"Ġscaffolding":2683,"Ġreferee":2684,"cial":2685,"jam":2686,"ws":2687,"Ġpipe":2688,"ention":2689,"aped":2690,"Ġclub":2691,"Ġdesign":2692,"Ġpassen":2693,"Ġcheckered":2694,"Ġgoods":2695,"Ġembra":2696,"Ġprofessional":2697,"Ġfans":2698,"Ġhan":2699,"eds":2700,"Ġcond":2701,"Ġpajam":2702,"Ġtractor":2703,"aked":2704,"Ġshaving":2705,"Ġgrind":2706,"Ġgoalie":2707,"Ġbanner":2708,"Ġgarbage":2709,"Ġteenagers":2710,"port":2711,"Ġcone":2712,"Ġyork":2713,"Ġteamm":2714,"Ġkiss":2715,"Ġreaches":2716,"Ġdemonstr":2717,"ase":2718,"bow":2719,"Ġfar":2720,"Ġwithout":2721,"Ġrece":2722,"Ġcobble":2723,"Ġexerc":2724,"Ġstaircase":2725,"Ġship":2726,"cro":2727,"Ġsale":2728,"Ġbeg":2729,"Ġswor":2730,"Ġfloral":2731,"Ġsmoke":2732,"Ġsaxophone":2733,"Ġbmx":2734,"ef":2735,"Ġown":2736,"Ġraft":2737,"Ġspr":2738,"Ġlies":2739,"cala":2740,"Ġbelt":2741,"Ġescala":2742,"Ġposition":2743,"ither":2744,"Ġtoss":2745,"Ġbending":2746,"anta":2747,"ache":2748,"arkskinned":2749,"Ġjuggling":2750,"pa":2751,"yho":2752,"Ġolymp":2753,"Ġsteep":2754,"Ġlon":2755,"Ġmoves":2756,"apan":2757,"Ġplane":2758,"Ġexamining":2759,"Ġlongsleeved":2760,"Ġhangs":2761,"ges":2762,"here":2763,"Ġthrown":2764,"rack":2765,"Ġredhead":2766,"Ġeither":2767,"Ġguitarist":2768,"Ġthemsel":2769,"Ġsheet":2770,"Ġsail":2771,"Ġdriver":2772,"Ġconversing":2773,"Ġpatter":2774,"Ġfunny":2775,"Ġstares":2776,"Ġopposite":2777,"Ġthemselves":2778,"Ġpillow":2779,"Ġarena":2780,"Ġlunch":2781,"Ġcrew":2782,"Ġbirds":2783,"blond":2784,"dium":2785,"Ġears":2786,"Ġpalm":2787,"Ġchalk":2788,"Ġriders":2789,"Ġspo":2790,"Ġplant":2791,"Ġsummer":2792,"Ġfresh":2793,"wi":2794,"irts":2795,"Ġtrump":2796,"Ġshoveling":2797,"Ġpitcher":2798,"Ġprotest":2799,"iled":2800,"ma":2801,"ues":2802,"rop":2803,"Ġhers":2804,"iding":2805,"Ġpodium":2806,"Ġfast":2807,"ips":2808,"Ġappl":2809,"Ġtube":2810,"Ġpuppy":2811,"Ġhiker":2812,"Ġshade":2813,"Ġbiking":2814,"Ġcloudy":2815,"Ġfirefight":2816,"Ġboxes":2817,"Ġbread":2818,"Ġsoldier":2819,"land":2820,"time":2821,"vis":2822,"Ġbent":2823,"Ġchar":2824,"Ġarmy":2825,"Ġribb":2826,"Ġjerseys":2827,"Ġwrit":2828,"Ġserving":2829,"Ġpedestrians":2830,"je":2831,"Ġaut":2832,"Ġbill":2833,"Ġtrip":2834,"Ġgl":2835,"Ġjapan":2836,"oney":2837,"Ġjew":2838,"Ġfloat":2839,"Ġshaking":2840,"Ġfocus":2841,"Ġfingers":2842,"Ġcandy":2843,"Ġhurdle":2844,"Ġmustache":2845,"Ġracet":2846,"Ġrobes":2847,"Ġsprink":2848,"yhound":2849,"pan":2850,"inery":2851,"Ġaco":2852,"Ġsurrounding":2853,"Ġpolk":2854,"Ġanimals":2855,"Ġformal":2856,"Ġtowel":2857,"Ġunderwater":2858,"Ġsleeve":2859,"Ġpajamas":2860,"Ġracetrack":2861,"Ġsup":2862,"Ġporch":2863,"Ġcer":2864,"Ġdel":2865,"Ġdarkskinned":2866,"Ġju":2867,"Ġlet":2868,"Ġsnack":2869,"Ġblocks":2870,"Ġdrummer":2871,"Ġcontainer":2872,"Ġeaster":2873,"Ġacoustic":2874,"bile":2875,"day":2876,"front":2877,"mers":2878,"rol":2879,"Ġlots":2880,"ghaired":2881,"boat":2882,"Ġbucking":2883,"Ġneon":2884,"Ġbroom":2885,"Ġcloud":2886,"Ġcaught":2887,"Ġforeign":2888,"Ġmachinery":2889,"Ġel":2890,"Ġmoney":2891,"Ġlane":2892,"Ġlay":2893,"Ġchop":2894,"Ġcones":2895,"Ġwas":2896,"Ġshown":2897,"Ġsheep":2898,"Ġbottles":2899,"Ġescalator":2900,"Ġherself":2901,"Ġges":2902,"lor":2903,"eter":2904,"Ġwagon":2905,"Ġheels":2906,"Ġuse":2907,"Ġtshirts":2908,"Ġpractice":2909,"Ġchases":2910,"Ġsuspended":2911,"Ġgesture":2912,"af":2913,"eum":2914,"fa":2915,"ipping":2916,"iny":2917,"Ġthumb":2918,"hill":2919,"uses":2920,"Ġorder":2921,"Ġheadband":2922,"Ġhaircut":2923,"Ġliqu":2924,"Ġsticking":2925,"Ġmarketplace":2926,"covered":2927,"Ġpieces":2928,"Ġbackpacks":2929,"Ġtattoos":2930,"ucasian":2931,"Ġamusement":2932,"cue":2933,"Ġpuck":2934,"Ġstri":2935,"ersection":2936,"Ġbackwards":2937,"Ġsnea":2938,"tered":2939,"Ġcamp":2940,"Ġmuseum":2941,"Ġdrive":2942,"Ġyouth":2943,"Ġintersection":2944,"Ġathletic":2945,"Ġmotorbike":2946,"Ġcarpet":2947,"Ġrout":2948,"Ġsix":2949,"Ġcare":2950,"Ġredhaired":2951,"Ġbrownhaired":2952,"spital":2953,"Ġobserving":2954,"Ġprint":2955,"Ġbarbecue":2956,"Ġponytail":2957,"brown":2958,"Ġtight":2959,"Ġdep":2960,"Ġfirst":2961,"Ġstor":2962,"Ġstyle":2963,"Ġbass":2964,"Ġsec":2965,"Ġhallway":2966,"Ġmodel":2967,"truck":2968,"Ġpiz":2969,"Ġtry":2970,"oned":2971,"Ġload":2972,"Ġhospital":2973,"amp":2974,"town":2975,"Ġsocks":2976,"Ġflight":2977,"Ġleaf":2978,"Ġteacher":2979,"Ġpaddling":2980,"Ġsoftball":2981,"Ġtrumpet":2982,"dan":2983,"zer":2984,"Ġsanta":2985,"Ġtar":2986,"roon":2987,"rier":2988,"Ġmaroon":2989,"uba":2990,"ations":2991,"Ġbars":2992,"hawk":2993,"Ġlaughs":2994,"Ġraising":2995,"Ġhappily":2996,"Ġmember":2997,"Ġtools":2998,"Ġvisible":2999,"Ġframe":3000,"jects":3001,"Ġthings":3002,"stone":3003,"Ġnarrow":3004,"Ġdrill":3005,"Ġparticipating":3006,"Ġmeeting":3007,"Ġpower":3008,"Ġfly":3009,"Ġlamp":3010,"Ġskirts":3011,"house":3012,"gged":3013,"Ġboxing":3014,"Ġopponent":3015,"Ġlonghaired":3016,"sho":3017,"Ġpige":3018,"Ġmall":3019,"Ġloun":3020,"Ġposter":3021,"Ġtops":3022,"Ġheadsc":3023,"Ġbenches":3024,"Ġrests":3025,"Ġindividual":3026,"Ġgreyhound":3027,"Ġnative":3028,"des":3029,"Ġgas":3030,"ato":3031,"Ġplaza":3032,"Ġbacks":3033,"Ġmas":3034,"Ġperformers":3035,"Ġcomm":3036,"Ġsets":3037,"Ġjockey":3038,"borne":3039,"Ġflowered":3040,"Ġgrand":3041,"Ġcelebrating":3042,"view":3043,"icycle":3044,"Ġdowntown":3045,"Ġmound":3046,"Ġmohawk":3047,"Ġhelps":3048,"Ġpaddle":3049,"Ġkneels":3050,"Ġchick":3051,"Ġathlete":3052,"Ġweather":3053,"Ġbeverage":3054,"Ġnecklace":3055,"Ġcerem":3056,"Ġsneakers":3057,"Ġroutine":3058,"min":3059,"male":3060,"Ġpit":3061,"Ġpump":3062,"Ġpunch":3063,"Ġmis":3064,"Ġtax":3065,"Ġorn":3066,"Ġspee":3067,"Ġscuba":3068,"Ġairborne":3069,"Ġbicyclists":3070,"Ġparach":3071,"Ġswimmer":3072,"Ġcaucasian":3073,"Ġfiretruck":3074,"Ġamid":3075,"Ġsnowboarding":3076,"Ġcomputers":3077,"Ġadvertisement":3078,"Ġspeech":3079,"cent":3080,"cular":3081,"Ġfree":3082,"chest":3083,"Ġleading":3084,"rench":3085,"Ġhandstand":3086,"hou":3087,"Ġcrosses":3088,"Ġkni":3089,"Ġfeed":3090,"Ġcarriage":3091,"Ġpatio":3092,"Ġcheerleaders":3093,"Ġretrie":3094,"Ġexcited":3095,"boo":3096,"ibly":3097,"Ġahead":3098,"Ġwar":3099,"Ġtied":3100,"Ġwire":3101,"seven":3102,"ured":3103,"Ġprete":3104,"Ġcaps":3105,"Ġsquatting":3106,"Ġairport":3107,"Ġfenced":3108,"Ġtransport":3109,"Ġcustomers":3110,"hood":3111,"tes":3112,"vol":3113,"Ġbun":3114,"Ġcyclists":3115,"Ġegg":3116,"Ġspace":3117,"Ġstripes":3118,"Ġeleph":3119,"Ġhomeless":3120,"Ġgrilling":3121,"Ġreflective":3122,"Ġsells":3123,"crowd":3124,"Ġjapanese":3125,"cess":3126,"Ġthin":3127,"tocross":3128,"Ġmain":3129,"Ġbarrel":3130,"Ġelectron":3131,"Ġyou":3132,"Ġteenager":3133,"flo":3134,"fem":3135,"Ġpop":3136,"Ġga":3137,"Ġlick":3138,"box":3139,"Ġbuying":3140,"tery":3141,"Ġteal":3142,"Ġoperating":3143,"Ġbranch":3144,"erby":3145,"Ġcree":3146,"ister":3147,"Ġtoo":3148,"Ġhikers":3149,"Ġrink":3150,"Ġbeen":3151,"Ġgravel":3152,"Ġneigh":3153,"Ġpret":3154,"Ġbaskets":3155,"Ġcatcher":3156,"Ġcourtyard":3157,"Ġcobblestone":3158,"Ġble":3159,"ature":3160,"Ġbul":3161,"Ġarc":3162,"Ġnote":3163,"Ġexpress":3164,"Ġpossibly":3165,"Ġkeep":3166,"Ġsword":3167,"Ġredheaded":3168,"gan":3169,"Ġgerman":3170,"Ġdim":3171,"usk":3172,"ried":3173,"Ġchee":3174,"Ġforward":3175,"Ġboardwalk":3176,"Ġsilhou":3177,"Ġgentlemen":3178,"Ġpatient":3179,"Ġwelding":3180,"Ġcheering":3181,"Ġsmokes":3182,"Ġindoors":3183,"Ġbrushing":3184,"Ġcollege":3185,"Ġmostly":3186,"Ġmagazine":3187,"thnic":3188,"Ġbir":3189,"Ġfea":3190,"Ġcoach":3191,"Ġblur":3192,"ilar":3193,"ility":3194,"Ġbalance":3195,"Ġevening":3196,"Ġfold":3197,"born":3198,"uffy":3199,"Ġentr":3200,"Ġneighbor":3201,"py":3202,"ption":3203,"Ġsu":3204,"iss":3205,"Ġdread":3206,"cked":3207,"Ġdoors":3208,"Ġoutstre":3209,"Ġracer":3210,"Ġbikers":3211,"Ġspinning":3212,"Ġsmaller":3213,"Ġcorn":3214,"Ġrainbow":3215,"Ġblows":3216,"Ġeastern":3217,"Ġpizza":3218,"pro":3219,"yc":3220,"Ġaction":3221,"Ġbank":3222,"Ġbiting":3223,"loy":3224,"rain":3225,"Ġmap":3226,"Ġskin":3227,"Ġmotocross":3228,"Ġtray":3229,"pher":3230,"boarder":3231,"Ġarch":3232,"Ġskateboards":3233,"Ġstudent":3234,"Ġrepairing":3235,"Ġsimilar":3236,"female":3237,"Ġcarving":3238,"Ġcarry":3239,"Ġspread":3240,"Ġitem":3241,"Ġgown":3242,"Ġlibr":3243,"ipes":3244,"Ġcompan":3245,"Ġbarber":3246,"Ġmotorcyclist":3247,"Ġattention":3248,"Ġcompete":3249,"Ġplan":3250,"Ġfolding":3251,"Ġpoliceman":3252,"Ġlongsleeve":3253,"Ġjewel":3254,"Ġsleeveless":3255,"Ġneighborhood":3256,"da":3257,"Ġmater":3258,"Ġdump":3259,"Ġhits":3260,"Ġnaked":3261,"Ġcool":3262,"Ġtag":3263,"cted":3264,"Ġvilla":3265,"Ġsofa":3266,"eeled":3267,"Ġcab":3268,"Ġobjects":3269,"Ġnewborn":3270,"Ġsporting":3271,"Ġgarage":3272,"Ġcolla":3273,"Ġcondu":3274,"Ġentrance":3275,"dles":3276,"large":3277,"ze":3278,"Ġgam":3279,"isting":3280,"aling":3281,"Ġcrossed":3282,"Ġsaw":3283,"Ġjob":3284,"Ġcloseup":3285,"Ġchoir":3286,"Ġcricket":3287,"Ġpolka":3288,"Ġmaterial":3289,"bal":3290,"can":3291,"ially":3292,"tel":3293,"Ġlines":3294,"stick":3295,"Ġrowing":3296,"Ġbackd":3297,"Ġorchest":3298,"Ġscru":3299,"Ġbalding":3300,"Ġknees":3301,"colored":3302,"Ġdisplaying":3303,"Ġflipflo":3304,"Ġintently":3305,"Ġcards":3306,"Ġcrane":3307,"Ġstove":3308,"Ġstrange":3309,"sur":3310,"Ġrough":3311,"hib":3312,"Ġshaped":3313,"Ġseco":3314,"Ġmicrophones":3315,"Ġstudio":3316,"Ġraises":3317,"Ġbathroom":3318,"Ġsoldiers":3319,"Ġsplashes":3320,"Ġlibrary":3321,"tub":3322,"tched":3323,"late":3324,"Ġstart":3325,"Ġskates":3326,"rents":3327,"Ġcons":3328,"Ġlifting":3329,"Ġturned":3330,"Ġamongst":3331,"Ġconfer":3332,"Ġrubber":3333,"Ġliquid":3334,"Ġorchestra":3335,"bl":3336,"hap":3337,"Ġsong":3338,"Ġhum":3339,"Ġbean":3340,"Ġseem":3341,"Ġadm":3342,"Ġexhib":3343,"Ġphotos":3344,"boys":3345,"Ġwheels":3346,"Ġguns":3347,"Ġcardboard":3348,"Ġgreat":3349,"Ġcrouches":3350,"Ġbushes":3351,"Ġcreek":3352,"Ġif":3353,"Ġcel":3354,"Ġtents":3355,"urity":3356,"Ġcoo":3357,"Ġshoot":3358,"Ġsharing":3359,"Ġethnic":3360,"dogs":3361,"Ġsocial":3362,"Ġsingle":3363,"Ġballet":3364,"Ġfruits":3365,"Ġmultiple":3366,"Ġceiling":3367,"Ġgymnastic":3368,"Ġcastle":3369,"Ġsuper":3370,"Ġheadscarf":3371,"Ġoutstretched":3372,"gre":3373,"ti":3374,"Ġwings":3375,"Ġpatch":3376,"Ġtv":3377,"rope":3378,"ative":3379,"Ġrange":3380,"Ġshare":3381,"Ġbund":3382,"Ġhanding":3383,"Ġunicycle":3384,"Ġshepher":3385,"Ġstops":3386,"Ġvehicles":3387,"Ġbuckets":3388,"Ġformation":3389,"Ġmedical":3390,"Ġtackle":3391,"Ġribbon":3392,"Ġknife":3393,"Ġfeeding":3394,"Ġbirth":3395,"Ġconference":3396,"lit":3397,"of":3398,"ris":3399,"vi":3400,"Ġsink":3401,"Ġpill":3402,"Ġtric":3403,"Ġdu":3404,"Ġfeat":3405,"ided":3406,"Ġrel":3407,"wning":3408,"Ġropes":3409,"Ġext":3410,"Ġwatched":3411,"ively":3412,"Ġattempt":3413,"Ġcontrol":3414,"american":3415,"Ġtaxi":3416,"Ġsecond":3417,"ccer":3418,"umn":3419,"Ġfashi":3420,"Ġtrim":3421,"Ġapple":3422,"Ġphotographs":3423,"Ġstopped":3424,"soccer":3425,"Ġengine":3426,"Ġdishes":3427,"Ġheart":3428,"Ġpigeons":3429,"Ġtransportation":3430,"Ġbirthday":3431,"Ġtile":3432,"nders":3433,"stor":3434,"Ġjet":3435,"Ġemer":3436,"Ġwaist":3437,"Ġsurg":3438,"Ġsandwi":3439,"Ġstorefront":3440,"Ġslight":3441,"Ġleaving":3442,"sely":3443,"Ġcups":3444,"Ġstretching":3445,"Ġmuzz":3446,"Ġbillboard":3447,"Ġbackdrop":3448,"Ġsides":3449,"Ġber":3450,"ica":3451,"Ġange":3452,"Ġnail":3453,"urs":3454,"Ġskater":3455,"Ġshortslee":3456,"Ġdefe":3457,"Ġplates":3458,"Ġdirections":3459,"Ġceremony":3460,"book":3461,"Ġflipflops":3462,"Ġshepherd":3463,"Ġsla":3464,"Ġsad":3465,"Ġwading":3466,"Ġpri":3467,"Ġdining":3468,"Ġdot":3469,"Ġremo":3470,"ions":3471,"Ġorgan":3472,"Ġsnowcovered":3473,"Ġwake":3474,"Ġbeneath":3475,"Ġcase":3476,"Ġbagp":3477,"Ġfalls":3478,"Ġemploy":3479,"Ġmini":3480,"Ġbouquet":3481,"Ġelephant":3482,"Ġjewelry":3483,"eer":3484,"eld":3485,"no":3486,"ually":3487,"Ġaqu":3488,"Ġinvol":3489,"locks":3490,"Ġjung":3491,"izon":3492,"ctory":3493,"Ġcalled":3494,"Ġpatterned":3495,"Ġdeli":3496,"Ġthumbs":3497,"ycling":3498,"Ġjungle":3499,"ior":3500,"Ġderby":3501,"uts":3502,"Ġrural":3503,"Ġsuitcase":3504,"Ġexte":3505,"Ġphotographed":3506,"Ġbreakdan":3507,"Ġcuts":3508,"Ġbalances":3509,"Ġdune":3510,"Ġchicken":3511,"Ġelectronic":3512,"Ġvillage":3513,"cc":3514,"like":3515,"ters":3516,"Ġax":3517,"unk":3518,"Ġru":3519,"Ġkit":3520,"Ġlear":3521,"Ġballer":3522,"Ġuniformed":3523,"Ġpurch":3524,"Ġcomple":3525,"Ġtech":3526,"Ġshops":3527,"Ġchecks":3528,"Ġmarried":3529,"Ġartwork":3530,"Ġapartment":3531,"Ġchains":3532,"Ġkayaking":3533,"Ġtelephone":3534,"Ġsecurity":3535,"Ġpretty":3536,"Ġdreadlocks":3537,"bat":3538,"gy":3539,"nas":3540,"zen":3541,"Ġsack":3542,"Ġatv":3543,"Ġbuy":3544,"Ġhorseback":3545,"Ġhillside":3546,"bbing":3547,"estrian":3548,"Ġteaching":3549,"Ġterrain":3550,"Ġdiscussion":3551,"Ġtraveling":3552,"Ġexercise":3553,"Ġgathers":3554,"lled":3555,"pol":3556,"int":3557,"Ġwo":3558,"Ġbead":3559,"Ġtug":3560,"Ġreg":3561,"Ġloom":3562,"Ġdownhill":3563,"Ġscore":3564,"Ġtraining":3565,"Ġfisherman":3566,"Ġconverse":3567,"Ġbutter":3568,"Ġshovels":3569,"Ġtower":3570,"Ġcalm":3571,"Ġfancy":3572,"Ġdimly":3573,"Ġcollared":3574,"Ġawa":3575,"Ġpress":3576,"Ġlan":3577,"Ġupon":3578,"Ġworld":3579,"Ġbarrier":3580,"Ġflat":3581,"Ġtrailer":3582,"Ġstraight":3583,"Ġobserve":3584,"Ġfurn":3585,"Ġtrop":3586,"Ġdonkey":3587,"ula":3588,"Ġic":3589,"Ġph":3590,"ense":3591,"Ġsteel":3592,"Ġstill":3593,"Ġrec":3594,"Ġbad":3595,"igious":3596,"Ġfactory":3597,"Ġparas":3598,"Ġcomplete":3599,"Ġtex":3600,"Ġattra":3601,"Ġattending":3602,"Ġafricanamerican":3603,"Ġfurry":3604,"Ġleads":3605,"Ġtux":3606,"Ġpetting":3607,"Ġpassengers":3608,"Ġteammate":3609,"Ġapplying":3610,"aster":3611,"Ġbla":3612,"Ġtea":3613,"Ġduck":3614,"Ġwild":3615,"orting":3616,"iring":3617,"Ġdoctor":3618,"Ġname":3619,"Ġloading":3620,"ilts":3621,"Ġevery":3622,"Ġkite":3623,"Ġmore":3624,"Ġoverhead":3625,"Ġsoda":3626,"Ġhorizon":3627,"Ġcleans":3628,"Ġpartially":3629,"Ġpottery":3630,"cuum":3631,"Ġcasual":3632,"Ġvacuum":3633,"Ġslightly":3634,"bag":3635,"mid":3636,"uzz":3637,"Ġfet":3638,"iture":3639,"Ġstir":3640,"Ġlar":3641,"Ġhotel":3642,"ards":3643,"Ġhandle":3644,"Ġscout":3645,"Ġseats":3646,"Ġlive":3647,"Ġfluffy":3648,"ivers":3649,"Ġjoy":3650,"Ġshaved":3651,"Ġcrafts":3652,"Ġtattooed":3653,"Ġcandles":3654,"Ġcrouching":3655,"Ġadjust":3656,"Ġgrinding":3657,"Ġspoon":3658,"vision":3659,"Ġsprinkler":3660,"Ġclouds":3661,"surf":3662,"iving":3663,"mat":3664,"Ġge":3665,"Ġparents":3666,"Ġraces":3667,"Ġmobile":3668,"ians":3669,"Ġgrayhaired":3670,"Ġturning":3671,"Ġclay":3672,"Ġcalf":3673,"Ġheav":3674,"street":3675,"Ġdiscussing":3676,"Ġrollerblades":3677,"Ġbleach":3678,"ked":3679,"made":3680,"nam":3681,"run":3682,"war":3683,"Ġdusk":3684,"Ġhad":3685,"Ġhuddle":3686,"itors":3687,"lon":3688,"wood":3689,"usting":3690,"Ġcarts":3691,"Ġrap":3692,"Ġleot":3693,"Ġbroken":3694,"Ġcamping":3695,"Ġflipping":3696,"Ġcraft":3697,"Ġcontest":3698,"Ġwrestle":3699,"Ġquick":3700,"where":3701,"Ġgames":3702,"Ġcello":3703,"Ġreligious":3704,"Ġfurniture":3705,"lid":3706,"mult":3707,"Ġsal":3708,"Ġslack":3709,"ils":3710,"Ġeu":3711,"Ġchess":3712,"Ġbrow":3713,"ways":3714,"Ġrainy":3715,"Ġnumbers":3716,"Ġgymnas":3717,"Ġclapping":3718,"Ġengaged":3719,"Ġadvertising":3720,"Ġprotesting":3721,"Ġfencing":3722,"Ġiron":3723,"Ġcustomer":3724,"Ġactiv":3725,"Ġmixing":3726,"Ġolympics":3727,"Ġtricycle":3728,"Ġbleachers":3729,"Ġgymnasium":3730,"Ġpee":3731,"Ġdead":3732,"ately":3733,"Ġshel":3734,"Ġrod":3735,"Ġkilt":3736,"Ġlean":3737,"Ġven":3738,"Ġsnowsho":3739,"Ġclut":3740,"Ġbanan":3741,"Ġintera":3742,"Ġbelly":3743,"Ġfollows":3744,"Ġassem":3745,"Ġmerch":3746,"Ġthough":3747,"Ġcheek":3748,"Ġsandwich":3749,"ded":3750,"ged":3751,"iety":3752,"Ġsem":3753,"Ġcru":3754,"Ġfat":3755,"Ġplacing":3756,"Ġnt":3757,"Ġlabor":3758,"Ġpale":3759,"tour":3760,"Ġmotion":3761,"Ġsection":3762,"Ġdec":3763,"coat":3764,"izing":3765,"Ġelev":3766,"brush":3767,"Ġbatter":3768,"Ġclad":3769,"Ġtrunk":3770,"Ġtourist":3771,"Ġfollowing":3772,"Ġpaddles":3773,"Ġbranches":3774,"Ġinspecting":3775,"Ġpumpkin":3776,"Ġgymnastics":3777,"Ġslacks":3778,"po":3779,"Ġcome":3780,"ldo":3781,"ount":3782,"umer":3783,"ries":3784,"Ġbends":3785,"Ġchase":3786,"Ġvic":3787,"Ġscre":3788,"Ġbricks":3789,"Ġcoloring":3790,"football":3791,"Ġrows":3792,"Ġexamines":3793,"Ġstarting":3794,"Ġtrashcan":3795,"tails":3796,"Ġwritten":3797,"Ġornate":3798,"Ġbulldo":3799,"Ġcooks":3800,"ky":3801,"urt":3802,"Ġinstru":3803,"Ġtick":3804,"Ġtheater":3805,"Ġdro":3806,"Ġhind":3807,"uting":3808,"Ġcovers":3809,"Ġcameras":3810,"Ġhug":3811,"Ġcreating":3812,"Ġfilling":3813,"Ġbrea":3814,"Ġyoga":3815,"Ġtourists":3816,"Ġcharact":3817,"Ġfolded":3818,"Ġlarger":3819,"ms":3820,"mus":3821,"Ġaim":3822,"Ġcall":3823,"lad":3824,"Ġstall":3825,"Ġtape":3826,"Ġfake":3827,"Ġflute":3828,"coup":3829,"Ġhugs":3830,"Ġcraw":3831,"Ġglove":3832,"Ġlisten":3833,"Ġspraying":3834,"Ġweaving":3835,"Ġreflection":3836,"Ġportra":3837,"Ġtelevision":3838,"Ġgestures":3839,"Ġamidst":3840,"Ġtropical":3841,"Ġtuxed":3842,"cul":3843,"Ġident":3844,"erry":3845,"Ġpins":3846,"Ġcage":3847,"Ġsty":3848,"teen":3849,"Ġmass":3850,"Ġbron":3851,"Ġclosely":3852,"Ġswimmers":3853,"Ġexper":3854,"Ġforehead":3855,"weight":3856,"ills":3857,"Ġkisses":3858,"Ġlaptops":3859,"Ġathletes":3860,"Ġrollerblading":3861,"Ġfirefighters":3862,"Ġcommun":3863,"multiple":3864,"barrow":3865,"frie":3866,"gle":3867,"vo":3868,"yo":3869,"Ġodd":3870,"Ġbino":3871,"Ġdone":3872,"Ġdive":3873,"chan":3874,"ically":3875,"Ġrally":3876,"Ġhouses":3877,"Ġgradu":3878,"Ġchin":3879,"Ġcrown":3880,"Ġmov":3881,"Ġbrief":3882,"Ġwhom":3883,"Ġfiremen":3884,"Ġnighttime":3885,"Ġwheelbarrow":3886,"Ġpoint":3887,"Ġlistens":3888,"Ġscenic":3889,"Ġvariety":3890,"ific":3891,"most":3892,"Ġgroceries":3893,"Ġmoment":3894,"Ġmasks":3895,"police":3896,"lies":3897,"Ġump":3898,"Ġais":3899,"Ġsy":3900,"Ġinform":3901,"ara":3902,"arn":3903,"ndon":3904,"orn":3905,"Ġplaced":3906,"Ġlondon":3907,"bles":3908,"Ġsniff":3909,"Ġcameram":3910,"Ġfireman":3911,"Ġopens":3912,"Ġviewing":3913,"Ġshoreline":3914,"Ġcasually":3915,"Ġtires":3916,"Ġnature":3917,"Ġcarefully":3918,"Ġmissing":3919,"Ġbeanie":3920,"bur":3921,"camer":3922,"ex":3923,"gen":3924,"green":3925,"mark":3926,"Ġgall":3927,"ising":3928,"Ġstom":3929,"long":3930,"Ġcoaster":3931,"ument":3932,"Ġpours":3933,"Ġchatting":3934,"Ġjumped":3935,"Ġmoder":3936,"Ġoverloo":3937,"Ġages":3938,"Ġcanv":3939,"Ġmechan":3940,"Ġwheelie":3941,"Ġscenery":3942,"Ġpractices":3943,"Ġlighting":3944,"Ġobserves":3945,"Ġcrouched":3946,"Ġpeers":3947,"Ġrollerskating":3948,"Ġtripod":3949,"ofwar":3950,"Ġtugofwar":3951,"Ġumpire":3952,"Ġgallery":3953,"vil":3954,"Ġaer":3955,"Ġsid":3956,"Ġsized":3957,"Ġbit":3958,"Ġcop":3959,"Ġtem":3960,"arves":3961,"Ġhut":3962,"Ġstones":3963,"Ġplayed":3964,"Ġshar":3965,"Ġmay":3966,"Ġspar":3967,"Ġsurfs":3968,"colate":3969,"Ġdesce":3970,"Ġpathway":3971,"Ġturns":3972,"Ġcircular":3973,"Ġtouches":3974,"Ġparticipate":3975,"Ġpuppies":3976,"Ġmessy":3977,"Ġpigtails":3978,"pass":3979,"Ġjuice":3980,"african":3981,"Ġtarget":3982,"Ġlicking":3983,"Ġsilhouette":3984,"Ġeurope":3985,"Ġvenue":3986,"Ġaisle":3987,"bic":3988,"gull":3989,"Ġpir":3990,"Ġmane":3991,"Ġdough":3992,"ices":3993,"Ġgrabbing":3994,"ctors":3995,"Ġpoor":3996,"Ġword":3997,"ases":3998,"Ġheaddress":3999,"Ġcouples":4000,"Ġchewing":4001,"Ġsaying":4002,"Ġspeak":4003,"Ġdisplays":4004,"Ġnotes":4005,"wheel":4006,"Ġchocolate":4007,"Ġmoped":4008,"Ġapproaching":4009,"Ġtossing":4010,"Ġparachute":4011,"Ġrapids":4012,"umerous":4013,"eight":4014,"Ġpood":4015,"Ġtiny":4016,"lot":4017,"rail":4018,"stud":4019,"cep":4020,"Ġrolled":4021,"Ġgroups":4022,"Ġlecture":4023,"Ġspark":4024,"Ġwares":4025,"Ġcamel":4026,"Ġsunlight":4027,"Ġlifts":4028,"Ġcomes":4029,"Ġarr":4030,"Ġmarch":4031,"Ġindust":4032,"Ġpresents":4033,"Ġflips":4034,"Ġbowls":4035,"Ġcelebration":4036,"Ġadjusting":4037,"Ġpassenger":4038,"Ġchalkboard":4039,"Ġskinny":4040,"Ġbutterf":4041,"Ġquickly":4042,"culars":4043,"Ġbinoculars":4044,"Ġsidel":4045,"coun":4046,"den":4047,"mon":4048,"Ġill":4049,"Ġoven":4050,"Ġbite":4051,"Ġtiled":4052,"Ġdj":4053,"Ġfit":4054,"ities":4055,"Ġwig":4056,"onal":4057,"Ġyarn":4058,"ution":4059,"Ġlogo":4060,"Ġtail":4061,"Ġwaterme":4062,"inder":4063,"Ġval":4064,"Ġoverweight":4065,"emen":4066,"Ġsep":4067,"Ġenvi":4068,"Ġhorn":4069,"anging":4070,"anges":4071,"Ġnewly":4072,"Ġalco":4073,"Ġvendors":4074,"Ġexamine":4075,"Ġhoops":4076,"cloth":4077,"Ġshadows":4078,"Ġsupplies":4079,"Ġembrace":4080,"Ġteammates":4081,"Ġstory":4082,"Ġlounge":4083,"Ġfeather":4084,"Ġexhibit":4085,"Ġsnowshoes":4086,"cd":4087,"mother":4088,"var":4089,"val":4090,"wl":4091,"inet":4092,"Ġovers":4093,"Ġfle":4094,"Ġstump":4095,"Ġrecord":4096,"Ġlass":4097,"Ġpocket":4098,"Ġmail":4099,"Ġcongre":4100,"Ġjeep":4101,"Ġrif":4102,"ronment":4103,"Ġalmost":4104,"Ġturban":4105,"Ġcray":4106,"Ġseagull":4107,"Ġpotato":4108,"Ġalleyway":4109,"Ġtouch":4110,"Ġshades":4111,"Ġsweeps":4112,"while":4113,"crosse":4114,"Ġfirefighter":4115,"Ġautumn":4116,"Ġvictor":4117,"Ġcanvas":4118,"Ġenvironment":4119,"Ġcongreg":4120,"mes":4121,"xy":4122,"Ġut":4123,"Ġtut":4124,"Ġtorch":4125,"Ġdad":4126,"Ġwithin":4127,"Ġrecl":4128,"Ġpay":4129,"Ġracers":4130,"Ġspid":4131,"ures":4132,"Ġseven":4133,"Ġmidst":4134,"Ġstripe":4135,"Ġmouths":4136,"Ġdescent":4137,"nequ":4138,"Ġshakes":4139,"Ġdrawn":4140,"Ġsilly":4141,"Ġlanding":4142,"Ġcontra":4143,"Ġproducts":4144,"Ġmedium":4145,"Ġexplo":4146,"Ġembracing":4147,"Ġexpression":4148,"Ġbagpipes":4149,"Ġlearning":4150,"Ġmovie":4151,"Ġmodern":4152,"Ġsharp":4153,"elderly":4154,"ments":4155,"now":4156,"Ġwel":4157,"Ġocc":4158,"Ġcurt":4159,"hift":4160,"Ġtom":4161,"Ġtig":4162,"arter":4163,"labor":4164,"ata":4165,"Ġdou":4166,"cheer":4167,"icemen":4168,"Ġfrozen":4169,"Ġwords":4170,"Ġrack":4171,"ults":4172,"ored":4173,"Ġlip":4174,"Ġacro":4175,"Ġbrit":4176,"umber":4177,"Ġenclo":4178,"Ġshower":4179,"Ġhills":4180,"Ġrolls":4181,"Ġattend":4182,"Ġmachines":4183,"Ġmex":4184,"Ġtoddlers":4185,"Ġpads":4186,"Ġmakeshift":4187,"Ġbrace":4188,"atory":4189,"Ġspotted":4190,"Ġrollerskates":4191,"Ġeggs":4192,"Ġarcade":4193,"Ġcompany":4194,"Ġchainsaw":4195,"couple":4196,"Ġstomach":4197,"Ġvalley":4198,"ipp":4199,"net":4200,"Ġmor":4201,"Ġmcd":4202,"Ġmannequ":4203,"opter":4204,"icopter":4205,"Ġlink":4206,"Ġplayfully":4207,"Ġcot":4208,"Ġlacrosse":4209,"Ġsoap":4210,"Ġcomfor":4211,"quo":4212,"Ġskiers":4213,"Ġconcent":4214,"Ġcrates":4215,"baby":4216,"Ġprinted":4217,"Ġunderwear":4218,"coming":4219,"Ġdusty":4220,"Ġbegins":4221,"Ġwakeboard":4222,"Ġballerina":4223,"Ġleotard":4224,"camera":4225,"students":4226,"Ġbutterfly":4227,"Ġalcoho":4228,"Ġmcdonal":4229,"fam":4230,"hop":4231,"rid":4232,"sw":4233,"Ġing":4234,"Ġwand":4235,"Ġtrench":4236,"Ġdom":4237,"Ġfed":4238,"Ġwires":4239,"Ġwhist":4240,"icle":4241,"umin":4242,"Ġhispan":4243,"rial":4244,"imes":4245,"Ġups":4246,"Ġbuild":4247,"rucks":4248,"Ġunus":4249,"skate":4250,"Ġwheeled":4251,"Ġdives":4252,"Ġrooft":4253,"Ġserve":4254,"Ġdecorative":4255,"Ġmonkey":4256,"pedestrians":4257,"Ġswimsuits":4258,"Ġsuspenders":4259,"Ġtooth":4260,"Ġnotebook":4261,"sticks":4262,"Ġhuman":4263,"Ġadmiring":4264,"Ġinteracting":4265,"Ġscream":4266,"Ġindustrial":4267,"Ġcurtain":4268,"cheerleaders":4269,"quoise":4270,"Ġhispanic":4271,"bies":4272,"thaired":4273,"rent":4274,"Ġpine":4275,"Ġcute":4276,"Ġtights":4277,"Ġhy":4278,"Ġhike":4279,"Ġrice":4280,"Ġrush":4281,"Ġbamb":4282,"Ġelabor":4283,"Ġbuff":4284,"Ġbuilt":4285,"Ġcamels":4286,"Ġoffcamera":4287,"Ġperched":4288,"Ġheaded":4289,"Ġacc":4290,"Ġaccom":4291,"Ġtext":4292,"Ġdebr":4293,"Ġboards":4294,"Ġboxer":4295,"Ġgift":4296,"Ġturquoise":4297,"Ġnewspapers":4298,"Ġblankets":4299,"Ġbrass":4300,"Ġstoop":4301,"Ġtwirl":4302,"Ġbouncing":4303,"Ġowner":4304,"Ġolympic":4305,"Ġscrubs":4306,"tourists":4307,"Ġdebris":4308,"dr":4309,"hand":4310,"ham":4311,"iet":4312,"snow":4313,"yed":4314,"aters":4315,"cker":4316,"lots":4317,"opes":4318,"Ġbound":4319,"Ġhandrail":4320,"ational":4321,"Ġcapture":4322,"Ġcanad":4323,"cot":4324,"Ġstairway":4325,"Ġpraying":4326,"Ġdrag":4327,"Ġharves":4328,"Ġinteresting":4329,"Ġlocated":4330,"Ġknitting":4331,"Ġwrites":4332,"happy":4333,"Ġcameraman":4334,"country":4335,"various":4336,"Ġconcentr":4337,"Ġbamboo":4338,"ake":4339,"chi":4340,"ikes":4341,"lley":4342,"ney":4343,"Ġbin":4344,"Ġgive":4345,"Ġstilts":4346,"ora":4347,"cher":4348,"Ġnun":4349,"Ġkim":4350,"Ġcargo":4351,"Ġrad":4352,"Ġscra":4353,"Ġscoot":4354,"Ġhelicopter":4355,"Ġmountainside":4356,"Ġappare":4357,"Ġdiver":4358,"Ġaprons":4359,"Ġwrestler":4360,"Ġmonument":4361,"Ġbrushes":4362,"Ġtrolley":4363,"Ġstretches":4364,"base":4365,"Ġscaffold":4366,"Ġpinata":4367,"Ġgazes":4368,"Ġapproaches":4369,"Ġfarmer":4370,"Ġsailboat":4371,"Ġangel":4372,"Ġshortsleeved":4373,"Ġbeads":4374,"Ġbulldozer":4375,"Ġportrait":4376,"gency":4377,"Ġrooftop":4378,"Ġscooters":4379,"bank":4380,"kid":4381,"Ġcans":4382,"Ġgest":4383,"andise":4384,"Ġhook":4385,"ades":4386,"Ġsmoo":4387,"lowing":4388,"Ġchat":4389,"Ġchamp":4390,"ngth":4391,"Ġsele":4392,"Ġsurp":4393,"Ġador":4394,"Ġmotorized":4395,"Ġhighway":4396,"Ġhighchair":4397,"Ġshaggy":4398,"Ġbattle":4399,"Ġcolum":4400,"ifier":4401,"Ġhotdog":4402,"Ġinterview":4403,"Ġcandle":4404,"Ġbathtub":4405,"Ġtackled":4406,"Ġsupport":4407,"Ġdemonstration":4408,"Ġlounging":4409,"Ġsuv":4410,"Ġpillar":4411,"Ġducks":4412,"Ġmerchandise":4413,"Ġcontraption":4414,"Ġtiger":4415,"Ġwere":4416,"Ġmower":4417,"Ġcub":4418,"itive":4419,"Ġwife":4420,"Ġplaces":4421,"Ġrick":4422,"Ġbaker":4423,"eas":4424,"Ġblackhaired":4425,"illed":4426,"Ġlaunch":4427,"Ġchina":4428,"Ġsnap":4429,"Ġunderground":4430,"Ġcape":4431,"Ġfishes":4432,"Ġpolish":4433,"ize":4434,"Ġcurve":4435,"Ġhomemade":4436,"Ġmilk":4437,"Ġchisel":4438,"Ġpedestrian":4439,"Ġburning":4440,"Ġfollowed":4441,"Ġfigures":4442,"Ġpretending":4443,"Ġsurgery":4444,"Ġbreakdancing":4445,"Ġaxe":4446,"Ġdouble":4447,"Ġacrobat":4448,"wear":4449,"Ġsear":4450,"Ġsund":4451,"Ġsym":4452,"Ġmow":4453,"Ġcit":4454,"Ġwill":4455,"Ġatm":4456,"Ġrear":4457,"ersby":4458,"Ġlat":4459,"Ġbelong":4460,"Ġasia":4461,"body":4462,"Ġscr":4463,"Ġenth":4464,"Ġcheese":4465,"Ġjogs":4466,"Ġwrist":4467,"Ġstrapped":4468,"Ġworkshop":4469,"Ġdisplayed":4470,"Ġdirect":4471,"Ġquarter":4472,"Ġsledding":4473,"Ġassist":4474,"Ġlifted":4475,"Ġentertaining":4476,"wai":4477,"Ġdemonstrating":4478,"Ġdepartment":4479,"Ġloaded":4480,"Ġpunching":4481,"rised":4482,"Ġfashion":4483,"Ġlanter":4484,"Ġheavily":4485,"music":4486,"Ġbriefcase":4487,"Ġtomato":4488,"Ġaccompan":4489,"baseball":4490,"car":4491,"gund":4492,"ilor":4493,"Ġmi":4494,"Ġcycling":4495,"romat":4496,"ises":4497,"Ġfind":4498,"Ġhiding":4499,"Ġshiny":4500,"right":4501,"amed":4502,"Ġlate":4503,"Ġmouse":4504,"Ġsnowball":4505,"Ġsnowsuit":4506,"Ġconstru":4507,"Ġgot":4508,"Ġcrosscountry":4509,"Ġboarding":4510,"Ġteens":4511,"Ġburgund":4512,"Ġcontaining":4513,"Ġtournam":4514,"Ġposters":4515,"Ġwaterski":4516,"Ġsplashed":4517,"Ġturt":4518,"firefight":4519,"Ġplanting":4520,"Ġextre":4521,"Ġinformation":4522,"Ġmaneu":4523,"Ġsidelines":4524,"Ġlasso":4525,"Ġkimon":4526,"Ġburgundy":4527,"dling":4528,"ives":4529,"ients":4530,"lish":4531,"oc":4532,"zy":4533,"annel":4534,"Ġpi":4535,"Ġtired":4536,"enting":4537,"orted":4538,"Ġrecor":4539,"Ġlime":4540,"Ġrings":4541,"Ġjud":4542,"Ġshining":4543,"Ġbend":4544,"Ġbib":4545,"Ġconte":4546,"Ġware":4547,"Ġscient":4548,"Ġgoat":4549,"Ġprocess":4550,"Ġcolorfully":4551,"Ġaged":4552,"Ġtread":4553,"Ġartists":4554,"Ġclearing":4555,"play":4556,"iously":4557,"otic":4558,"Ġstudying":4559,"works":4560,"Ġnets":4561,"Ġseries":4562,"Ġbanjo":4563,"ensive":4564,"Ġlocation":4565,"guys":4566,"Ġcontainers":4567,"Ġpacked":4568,"Ġlaundromat":4569,"Ġsleeves":4570,"Ġstringed":4571,"Ġmerry":4572,"Ġberet":4573,"Ġscouts":4574,"Ġcotton":4575,"Ġtournament":4576,"bby":4577,"he":4578,"Ġinj":4579,"Ġinner":4580,"Ġpy":4581,"Ġfrench":4582,"Ġsteam":4583,"style":4584,"vering":4585,"Ġpots":4586,"Ġbystand":4587,"Ġlegging":4588,"Ġjumper":4589,"Ġoranges":4590,"igning":4591,"Ġsouth":4592,"Ġshorthaired":4593,"Ġlips":4594,"Ġmountainous":4595,"Ġbarric":4596,"Ġmarble":4597,"Ġdisc":4598,"Ġkickbox":4599,"Ġpolicemen":4600,"Ġshawl":4601,"Ġstatues":4602,"Ġbusinessman":4603,"Ġmonitor":4604,"Ġimages":4605,"Ġentering":4606,"goround":4607,"Ġstretched":4608,"Ġchefs":4609,"Ġstepping":4610,"Ġbeverages":4611,"Ġdriveway":4612,"Ġretriever":4613,"Ġconsisting":4614,"Ġminiature":4615,"Ġadjusts":4616,"Ġlaboratory":4617,"Ġpirate":4618,"Ġrifle":4619,"Ġelaborate":4620,"bed":4621,"bling":4622,"Ġsat":4623,"Ġpow":4624,"Ġmit":4625,"Ġdivers":4626,"Ġhop":4627,"ened":4628,"oms":4629,"rous":4630,"Ġplain":4631,"Ġresc":4632,"Ġang":4633,"Ġbay":4634,"Ġlove":4635,"Ġcoast":4636,"ama":4637,"Ġem":4638,"Ġhawai":4639,"Ġgrab":4640,"Ġbrother":4641,"Ġspan":4642,"Ġhandling":4643,"Ġsco":4644,"Ġblood":4645,"Ġfoods":4646,"Ġprop":4647,"Ġvending":4648,"Ġkno":4649,"Ġcellphones":4650,"Ġkicked":4651,"Ġattack":4652,"Ġamount":4653,"Ġbrides":4654,"Ġskyd":4655,"Ġservice":4656,"Ġpicks":4657,"Ġwrestlers":4658,"Ġquiet":4659,"Ġbottoms":4660,"Ġgazing":4661,"Ġfarmers":4662,"Ġdesigns":4663,"Ġsnacks":4664,"Ġchopping":4665,"Ġblurry":4666,"Ġgraduation":4667,"Ġaerial":4668,"Ġmexican":4669,"Ġgesturing":4670,"Ġcolumns":4671,"Ġscratch":4672,"Ġenthus":4673,"Ġmerrygoround":4674,"Ġleggings":4675,"lim":4676,"mar":4677,"ste":4678,"Ġado":4679,"Ġol":4680,"Ġpr":4681,"Ġgoo":4682,"Ġstuck":4683,"Ġstars":4684,"orts":4685,"onge":4686,"Ġtoile":4687,"Ġrele":4688,"Ġlion":4689,"stro":4690,"Ġmenu":4691,"Ġpac":4692,"Ġskills":4693,"Ġsideways":4694,"Ġfacial":4695,"Ġscience":4696,"Ġtablecloth":4697,"Ġdef":4698,"aging":4699,"Ġsailing":4700,"Ġspeaker":4701,"Ġcowboys":4702,"Ġsquats":4703,"Ġtackling":4704,"Ġframed":4705,"Ġwashes":4706,"Ġsocializing":4707,"Ġsupermark":4708,"Ġattractive":4709,"middle":4710,"Ġtuxedo":4711,"Ġidentical":4712,"Ġexperim":4713,"Ġbritish":4714,"Ġmorning":4715,"Ġunusual":4716,"Ġtoothbrush":4717,"Ġbelongings":4718,"Ġcontemp":4719,"Ġwarehouse":4720,"cra":4721,"cil":4722,"een":4723,"kis":4724,"zard":4725,"Ġu":4726,"Ġest":4727,"Ġage":4728,"Ġsar":4729,"Ġsom":4730,"tho":4731,"Ġmur":4732,"Ġmead":4733,"Ġthan":4734,"ndo":4735,"attered":4736,"lons":4737,"Ġbabies":4738,"Ġgrabs":4739,"Ġkio":4740,"Ġsomewhere":4741,"Ġrabb":4742,"Ġlevel":4743,"ements":4744,"hockey":4745,"Ġsound":4746,"asing":4747,"Ġunf":4748,"Ġunlo":4749,"Ġtopless":4750,"Ġwhose":4751,"Ġdaytime":4752,"Ġflannel":4753,"Ġfireworks":4754,"Ġskyline":4755,"Ġauditor":4756,"Ġofficial":4757,"Ġdecorations":4758,"Ġtypes":4759,"Ġproduct":4760,"Ġspecial":4761,"Ġprojector":4762,"Ġoperates":4763,"Ġrepairs":4764,"Ġnav":4765,"spect":4766,"Ġretur":4767,"Ġreception":4768,"Ġstrike":4769,"Ġconductor":4770,"Ġinvolving":4771,"runners":4772,"Ġbronco":4773,"Ġcrayons":4774,"Ġmannequin":4775,"Ġturtle":4776,"Ġsupermarket":4777,"Ġmeadow":4778,"Ġauditorium":4779,"ipped":4780,"Ġmeas":4781,"Ġstro":4782,"Ġhistor":4783,"Ġanti":4784,"Ġlogs":4785,"Ġcoca":4786,"Ġshru":4787,"Ġhere":4788,"Ġcherry":4789,"Ġsprin":4790,"Ġsciss":4791,"Ġscaling":4792,"Ġsunba":4793,"Ġunivers":4794,"Ġaddress":4795,"Ġexpla":4796,"Ġmarsh":4797,"Ġmarked":4798,"Ġphotographers":4799,"Ġdragging":4800,"bbles":4801,"Ġcrashing":4802,"Ġbedroom":4803,"Ġstrugg":4804,"Ġharbor":4805,"Ġbikinis":4806,"Ġguards":4807,"Ġtermin":4808,"Ġspotlight":4809,"Ġpattern":4810,"Ġletters":4811,"Ġtarp":4812,"Ġbundled":4813,"Ġfeaturing":4814,"Ġemployee":4815,"Ġblazer":4816,"Ġsyn":4817,"family":4818,"Ġcitiz":4819,"Ġbridesma":4820,"Ġnavig":4821,"bing":4822,"son":4823,"iner":4824,"Ġmug":4825,"Ġthick":4826,"Ġtrucks":4827,"Ġdet":4828,"Ġstain":4829,"Ġstaff":4830,"ester":4831,"opy":4832,"Ġyelling":4833,"tem":4834,"Ġrust":4835,"Ġblind":4836,"Ġbeers":4837,"Ġwaterway":4838,"iece":4839,"Ġskull":4840,"Ġsponge":4841,"Ġclock":4842,"Ġfac":4843,"pper":4844,"Ġasians":4845,"shirtless":4846,"gger":4847,"Ġfloats":4848,"Ġused":4849,"shaw":4850,"Ġtreat":4851,"Ġcows":4852,"Ġcrash":4853,"Ġdigs":4854,"Ġdigital":4855,"Ġelectrical":4856,"Ġrelaxes":4857,"Ġfoli":4858,"Ġblocking":4859,"Ġcasting":4860,"smiling":4861,"Ġfestive":4862,"Ġpeering":4863,"Ġeyeglasses":4864,"Ġgaze":4865,"Ġmagazines":4866,"Ġgrinds":4867,"Ġletter":4868,"Ġelse":4869,"Ġdumpster":4870,"Ġactivity":4871,"Ġtemple":4872,"Ġeuropean":4873,"Ġpoodle":4874,"Ġillumin":4875,"Ġingred":4876,"Ġwhistle":4877,"Ġhydr":4878,"Ġrickshaw":4879,"Ġhawaiian":4880,"Ġenthusia":4881,"Ġkiosk":4882,"spectators":4883,"bu":4884,"ift":4885,"Ġara":4886,"Ġavo":4887,"Ġsigning":4888,"rew":4889,"lets":4890,"lent":4891,"Ġfellow":4892,"Ġharm":4893,"andel":4894,"Ġja":4895,"Ġnur":4896,"Ġnurse":4897,"Ġshape":4898,"Ġtags":4899,"Ġupward":4900,"they":4901,"Ġraz":4902,"Ġneed":4903,"Ġskies":4904,"Ġhandbag":4905,"Ġscarves":4906,"Ġsees":4907,"Ġheading":4908,"ells":4909,"Ġwindsurf":4910,"Ġshoppers":4911,"agne":4912,"Ġsaus":4913,"Ġcanal":4914,"Ġnews":4915,"Ġpassersby":4916,"Ġwheeler":4917,"Ġdraw":4918,"Ġfoam":4919,"Ġchecked":4920,"Ġhotdogs":4921,"Ġwrap":4922,"Ġvisiting":4923,"Ġadvertisements":4924,"Ġstock":4925,"Ġbooths":4926,"Ġprotesters":4927,"Ġautom":4928,"Ġcampfire":4929,"Ġemergency":4930,"Ġextended":4931,"Ġbrowsing":4932,"Ġcharacters":4933,"Ġvictory":4934,"Ġspiderman":4935,"skateboarder":4936,"Ġcanadian":4937,"Ġradio":4938,"Ġchampagne":4939,"Ġwaterskiing":4940,"firefighters":4941,"Ġbystanders":4942,"Ġesta":4943,"Ġscissors":4944,"Ġuniversity":4945,"Ġterminal":4946,"Ġfoliage":4947,"Ġhydrant":4948,"elding":4949,"pants":4950,"rings":4951,"tur":4952,"vent":4953,"vention":4954,"Ġsen":4955,"Ġmy":4956,"Ġmoun":4957,"Ġtimes":4958,"arium":4959,"icing":4960,"Ġya":4961,"Ġreally":4962,"tender":4963,"Ġhip":4964,"Ġlining":4965,"Ġcocon":4966,"Ġshelf":4967,"ilies":4968,"Ġhaul":4969,"Ġpauses":4970,"Ġupper":4971,"Ġfields":4972,"ude":4973,"ague":4974,"Ġstores":4975,"Ġtrains":4976,"Ġpushed":4977,"Ġboxers":4978,"cake":4979,"Ġdraped":4980,"Ġnumbered":4981,"Ġearrings":4982,"Ġcasino":4983,"Ġzone":4984,"Ġfocused":4985,"Ġblurred":4986,"blue":4987,"blish":4988,"noon":4989,"Ġaquarium":4990,"Ġbananas":4991,"Ġinstructor":4992,"Ġoverlooks":4993,"Ġsurprised":4994,"Ġingredients":4995,"Ġestablish":4996,"cuit":4997,"kn":4998,"mill":4999,"off":5000,"tra":5001,"Ġip":5002,"hite":5003,"Ġlimb":5004,"Ġwhitehaired":5005,"Ġholid":5006,"Ġroses":5007,"adults":5008,"seat":5009,"Ġbeat":5010,"ressed":5011,"imate":5012,"phy":5013,"ested":5014,"Ġsweaters":5015,"Ġsailor":5016,"Ġobsc":5017,"Ġcostumed":5018,"Ġpassed":5019,"Ġmetro":5020,"Ġfilming":5021,"Ġraincoat":5022,"uffs":5023,"Ġraise":5024,"Ġearphones":5025,"ucking":5026,"Ġcrate":5027,"Ġburied":5028,"Ġhambur":5029,"Ġshield":5030,"Ġclowns":5031,"Ġcelebrate":5032,"Ġnatural":5033,"what":5034,"Ġtransit":5035,"tenance":5036,"close":5037,"Ġfinishing":5038,"Ġinspects":5039,"Ġbounce":5040,"Ġchopsticks":5041,"Ġemployees":5042,"Ġpurchase":5043,"Ġticket":5044,"Ġcommunity":5045,"Ġtutu":5046,"Ġmcdonald":5047,"Ġscreaming":5048,"Ġsymbo":5049,"Ġharmon":5050,"Ġholiday":5051,"food":5052,"mart":5053,"pain":5054,"tie":5055,"Ġawning":5056,"inging":5057,"Ġsorting":5058,"Ġinst":5059,"Ġgrow":5060,"alt":5061,"roud":5062,"eling":5063,"Ġcock":5064,"using":5065,"Ġasking":5066,"lly":5067,"Ġpaying":5068,"bot":5069,"indian":5070,"Ġspons":5071,"apped":5072,"Ġpictured":5073,"Ġcommer":5074,"Ġarrow":5075,"Ġpurses":5076,"Ġtending":5077,"Ġsheets":5078,"Ġflash":5079,"Ġmotorcyclists":5080,"Ġcann":5081,"Ġdesks":5082,"Ġlighted":5083,"Ġindia":5084,"Ġpaintings":5085,"Ġhardwood":5086,"Ġpaperwork":5087,"Ġpray":5088,"Ġpointed":5089,"Ġafternoon":5090,"ott":5091,"Ġprepared":5092,"Ġcigarettes":5093,"osaur":5094,"Ġdinosaur":5095,"Ġsprayed":5096,"Ġbarbecu":5097,"Ġjumpsuits":5098,"Ġreceiving":5099,"Ġarchite":5100,"Ġsilhouet":5101,"Ġmuzzle":5102,"Ġstirring":5103,"Ġsniffing":5104,"Ġbuffet":5105,"Ġquarterback":5106,"Ġinjured":5107,"Ġspanish":5108,"Ġolive":5109,"bi":5110,"bear":5111,"cow":5112,"test":5113,"zing":5114,"Ġvert":5115,"Ġsys":5116,"Ġox":5117,"Ġbump":5118,"Ġten":5119,"opo":5120,"Ġlush":5121,"store":5122,"Ġasce":5123,"Ġupwards":5124,"Ġmaj":5125,"Ġcrops":5126,"Ġspring":5127,"Ġpersonnel":5128,"pho":5129,"Ġunhappy":5130,"Ġflock":5131,"Ġmountaintop":5132,"Ġmuslim":5133,"Ġbartender":5134,"Ġdeer":5135,"Ġtreel":5136,"Ġdriven":5137,"Ġmarker":5138,"Ġflowing":5139,"Ġcany":5140,"Ġclassic":5141,"Ġapart":5142,"Ġbutt":5143,"Ġpatri":5144,"Ġserves":5145,"Ġpresenting":5146,"ously":5147,"leader":5148,"Ġdryer":5149,"quee":5150,"Ġspeeds":5151,"Ġcurlyhaired":5152,"Ġkayaks":5153,"Ġfreshly":5154,"Ġdrilling":5155,"Ġicy":5156,"Ġtwirling":5157,"Ġdirectly":5158,"Ġrecording":5159,"Ġinnertub":5160,"Ġmitt":5161,"Ġrazor":5162,"closeup":5163,"Ġharmonica":5164,"field":5165,"gie":5166,"ket":5167,"rit":5168,"wash":5169,"zes":5170,"Ġske":5171,"Ġpipes":5172,"Ġtying":5173,"Ġgal":5174,"Ġgig":5175,"etti":5176,"utes":5177,"Ġant":5178,"Ġeight":5179,"Ġlaid":5180,"todd":5181,"Ġraking":5182,"Ġrafting":5183,"Ġbroad":5184,"Ġpersons":5185,"aping":5186,"Ġperhap":5187,"Ġclar":5188,"Ġarri":5189,"Ġwhen":5190,"Ġwaiter":5191,"Ġcaution":5192,"Ġtribal":5193,"Ġmarking":5194,"Ġflaming":5195,"Ġphotographing":5196,"Ġdraws":5197,"Ġgarment":5198,"Ġintense":5199,"Ġstunts":5200,"Ġshoots":5201,"Ġportable":5202,"Ġpossession":5203,"Ġboulder":5204,"Ġbegin":5205,"Ġyouths":5206,"Ġfashioned":5207,"Ġsurgical":5208,"Ġfatig":5209,"Ġbites":5210,"Ġseagulls":5211,"Ġpilot":5212,"Ġrescue":5213,"Ġcontempla":5214,"Ġestablishment":5215,"known":5216,"Ġcommercial":5217,"Ġcanyon":5218,"Ġperhaps":5219,"bas":5220,"ders":5221,"gress":5222,"lph":5223,"pit":5224,"Ġamp":5225,"Ġbor":5226,"Ġpiles":5227,"Ġcy":5228,"Ġstay":5229,"Ġwilder":5230,"Ġdolph":5231,"Ġresp":5232,"Ġhips":5233,"sters":5234,"Ġlast":5235,"Ġlabe":5236,"ieval":5237,"Ġbackseat":5238,"Ġfork":5239,"Ġlens":5240,"Ġswe":5241,"Ġsnake":5242,"Ġspi":5243,"Ġsol":5244,"Ġsoon":5245,"Ġworkout":5246,"ished":5247,"Ġacting":5248,"Ġflood":5249,"Ġusa":5250,"Ġclimbers":5251,"Ġwaitress":5252,"Ġcaf":5253,"Ġapples":5254,"Ġclothed":5255,"Ġbookstore":5256,"Ġcompetitive":5257,"Ġsuburban":5258,"Ġdragon":5259,"Ġfound":5260,"Ġstrollers":5261,"Ġcheerleader":5262,"Ġcontents":5263,"motor":5264,"sold":5265,"Ġmonopo":5266,"Ġchips":5267,"Ġmedieval":5268,"Ġprotection":5269,"Ġkhakis":5270,"Ġhurdles":5271,"Ġcleaner":5272,"Ġmuch":5273,"Ġentertains":5274,"Ġbeginning":5275,"Ġpillows":5276,"Ġspots":5277,"Ġribbons":5278,"Ġelmo":5279,"Ġstriking":5280,"Ġdepic":5281,"Ġbunny":5282,"Ġmaintenance":5283,"Ġfeathers":5284,"protest":5285,"storm":5286,"Ġcompleting":5287,"Ġhorizont":5288,"Ġfetch":5289,"Ġpeeking":5290,"friends":5291,"Ġoversized":5292,"Ġmailbox":5293,"Ġalcohol":5294,"Ġpacifier":5295,"photo":5296,"Ġwilderness":5297,"Ġlabeled":5298,"Ġmonopoly":5299,"ab":5300,"dish":5301,"during":5302,"jump":5303,"lights":5304,"pen":5305,"va":5306,"inger":5307,"Ġpuzz":5308,"Ġming":5309,"leading":5310,"Ġties":5311,"Ġgla":5312,"Ġflee":5313,"Ġhunch":5314,"lap":5315,"Ġrem":5316,"strip":5317,"Ġreddish":5318,"ami":5319,"Ġbeca":5320,"Ġasph":5321,"Ġskaters":5322,"Ġsplit":5323,"Ġsnowman":5324,"Ġconvention":5325,"apes":5326,"Ġgoate":5327,"Ġunknown":5328,"uds":5329,"Ġbicycling":5330,"Ġprogress":5331,"Ġexiting":5332,"club":5333,"Ġflames":5334,"Ġcanopy":5335,"Ġbowler":5336,"Ġeven":5337,"Ġamaz":5338,"Ġforested":5339,"Ġcigar":5340,"Ġearly":5341,"bbling":5342,"Ġrowboat":5343,"Ġbelts":5344,"Ġstretch":5345,"Ġlower":5346,"unges":5347,"Ġbarefooted":5348,"Ġzip":5349,"Ġracquet":5350,"Ġwarmly":5351,"Ġstacked":5352,"Ġnecklaces":5353,"Ġpencil":5354,"Ġswords":5355,"Ġjuggles":5356,"Ġgreyhounds":5357,"minton":5358,"Ġpillars":5359,"Ġawaiting":5360,"Ġaiming":5361,"Ġsparring":5362,"Ġkickboxing":5363,"Ġtoilet":5364,"Ġantique":5365,"Ġsystem":5366,"protesters":5367,"Ġbecause":5368,"Ġasphalt":5369,"abo":5370,"cyclists":5371,"father":5372,"vices":5373,"wal":5374,"wed":5375,"Ġab":5376,"Ġsam":5377,"Ġsling":5378,"Ġsash":5379,"Ġcul":5380,"Ġtips":5381,"Ġdest":5382,"Ġfist":5383,"Ġfrying":5384,"Ġhung":5385,"enga":5386,"Ġstate":5387,"Ġdoctors":5388,"chron":5389,"icans":5390,"Ġjenga":5391,"Ġnike":5392,"Ġnamed":5393,"ushi":5394,"used":5395,"Ġvint":5396,"Ġsparks":5397,"Ġrocking":5398,"Ġunique":5399,"Ġheal":5400,"Ġpropped":5401,"Ġcave":5402,"Ġsubst":5403,"Ġmega":5404,"Ġplank":5405,"Ġleast":5406,"Ġamerica":5407,"Ġcheckers":5408,"Ġpickup":5409,"Ġvegetation":5410,"azz":5411,"Ġlands":5412,"Ġclaus":5413,"Ġcheerleading":5414,"Ġmonitors":5415,"Ġgolfer":5416,"Ġstrawber":5417,"Ġpackage":5418,"Ġstrum":5419,"Ġterrier":5420,"Ġcookie":5421,"Ġcries":5422,"Ġexcit":5423,"Ġdolls":5424,"Ġexercising":5425,"Ġtosses":5426,"with":5427,"eteria":5428,"Ġconducting":5429,"Ġshortsleeve":5430,"Ġaqua":5431,"Ġbadminton":5432,"Ġtexting":5433,"Ġhandleb":5434,"Ġcluttered":5435,"Ġelevator":5436,"Ġmechanical":5437,"Ġwatermelon":5438,"Ġseparate":5439,"Ġfedora":5440,"Ġaccident":5441,"Ġapparent":5442,"Ġsmooth":5443,"Ġscoop":5444,"Ġadolesc":5445,"middleaged":5446,"Ġexperiment":5447,"craft":5448,"Ġautomo":5449,"Ġtreelined":5450,"toddler":5451,"Ġcafeteria":5452,"fast":5453,"piece":5454,"sting":5455,"sure":5456,"well":5457,"Ġslow":5458,"Ġbon":5459,"Ġproud":5460,"Ġcent":5461,"Ġcash":5462,"Ġtest":5463,"Ġfi":5464,"Ġhallow":5465,"Ġstance":5466,"oring":5467,"race":5468,"Ġlin":5469,"Ġsiting":5470,"Ġnor":5471,"Ġnumerous":5472,"Ġpaws":5473,"Ġtask":5474,"Ġwatering":5475,"Ġbust":5476,"Ġuphill":5477,"Ġleague":5478,"Ġgreenery":5479,"Ġscales":5480,"Ġguide":5481,"Ġboogie":5482,"Ġwhole":5483,"Ġcath":5484,"Ġlooked":5485,"Ġsurfers":5486,"Ġriot":5487,"Ġfireplace":5488,"scent":5489,"Ġattach":5490,"Ġpolit":5491,"Ġamb":5492,"Ġnightclub":5493,"Ġbodysuit":5494,"Ġriverbank":5495,"Ġjog":5496,"Ġjoh":5497,"Ġfill":5498,"Ġbreast":5499,"Ġcarrier":5500,"Ġbutcher":5501,"Ġpicket":5502,"Ġearth":5503,"mock":5504,"Ġmonk":5505,"Ġquest":5506,"Ġtuba":5507,"Ġcattle":5508,"Ġcountryside":5509,"Ġhammock":5510,"Ġgreet":5511,"Ġvisor":5512,"Ġweap":5513,"Ġvac":5514,"Ġmixer":5515,"Ġbeams":5516,"Ġapplies":5517,"idedown":5518,"Ġnails":5519,"Ġsaddle":5520,"Ġcompletely":5521,"Ġbanana":5522,"Ġbreaking":5523,"Ġcrawling":5524,"Ġbracelet":5525,"Ġupsidedown":5526,"Ġbakery":5527,"Ġsundress":5528,"musicians":5529,"Ġpyra":5530,"Ġmurky":5531,"Ġilluminated":5532,"Ġmounted":5533,"ketball":5534,"basketball":5535,"Ġhunched":5536,"Ġvintage":5537,"Ġsubstance":5538,"Ġhalloween":5539,"ailing":5540,"custom":5541,"cases":5542,"flow":5543,"ith":5544,"mmed":5545,"tw":5546,"ye":5547,"Ġid":5548,"Ġsquee":5549,"Ġpops":5550,"Ġcycle":5551,"high":5552,"Ġtin":5553,"Ġthese":5554,"Ġdess":5555,"Ġdeter":5556,"Ġisland":5557,"gee":5558,"Ġwalmart":5559,"Ġroman":5560,"sem":5561,"Ġswan":5562,"Ġspike":5563,"Ġconn":5564,"Ġital":5565,"Ġnearly":5566,"ppy":5567,"Ġsurge":5568,"Ġparka":5569,"Ġroadside":5570,"Ġmuscular":5571,"Ġcarou":5572,"Ġexch":5573,"Ġdribbles":5574,"Ġdeser":5575,"Ġturkey":5576,"Ġfog":5577,"Ġrails":5578,"Ġserved":5579,"Ġserious":5580,"Ġbatman":5581,"Ġweight":5582,"Ġweird":5583,"Ġvibr":5584,"Ġbanners":5585,"Ġcircuit":5586,"Ġmemor":5587,"Ġharp":5588,"Ġbraided":5589,"Ġgardening":5590,"Ġvideot":5591,"Ġtrophy":5592,"Ġpuppet":5593,"Ġpeak":5594,"Ġincludes":5595,"Ġcollection":5596,"Ġwaterfront":5597,"Ġsteering":5598,"Ġtravels":5599,"Ġstacks":5600,"Ġfinished":5601,"Ġpiggy":5602,"Ġthought":5603,"Ġelbow":5604,"Ġmascot":5605,"Ġjockeys":5606,"Ġornam":5607,"Ġlicks":5608,"Ġadmire":5609,"Ġinvolved":5610,"Ġruins":5611,"Ġvacuuming":5612,"Ġsalon":5613,"Ġcruise":5614,"friend":5615,"cept":5616,"xylo":5617,"Ġlipstick":5618,"Ġenclosed":5619,"swim":5620,"Ġdomino":5621,"Ġaccompanied":5622,"Ġbridesmaids":5623,"Ġfacility":5624,"Ġsenior":5625,"Ġsponsored":5626,"bearded":5627,"Ġfatigues":5628,"Ġgoatee":5629,"Ġexcitement":5630,"aker":5631,"bie":5632,"bull":5633,"fold":5634,"hat":5635,"mil":5636,"numerous":5637,"number":5638,"school":5639,"Ġxylo":5640,"Ġping":5641,"Ġpant":5642,"Ġcult":5643,"legged":5644,"Ġtiles":5645,"Ġgor":5646,"Ġdandel":5647,"Ġfell":5648,"Ġfile":5649,"Ġhun":5650,"Ġbored":5651,"Ġyears":5652,"Ġanc":5653,"Ġran":5654,"Ġnin":5655,"Ġlock":5656,"Ġlobby":5657,"Ġrot":5658,"boats":5659,"Ġgras":5660,"toon":5661,"Ġchem":5662,"Ġbudd":5663,"Ġbuggy":5664,"Ġupset":5665,"Ġlength":5666,"Ġskim":5667,"Ġsnork":5668,"Ġoverpass":5669,"Ġsnowmo":5670,"Ġsoup":5671,"Ġcamps":5672,"Ġscott":5673,"asting":5674,"Ġheadset":5675,"antly":5676,"Ġroadway":5677,"Ġfloors":5678,"Ġhorns":5679,"ected":5680,"ivil":5681,"vely":5682,"scra":5683,"Ġviewer":5684,"Ġsquir":5685,"Ġstopping":5686,"working":5687,"ails":5688,"Ġdirecting":5689,"ified":5690,"Ġfixes":5691,"Ġinteract":5692,"Ġsprays":5693,"Ġdiner":5694,"Ġengage":5695,"Ġeast":5696,"Ġeasel":5697,"Ġcollecting":5698,"Ġinflated":5699,"Ġmixed":5700,"Ġmotorbikes":5701,"dressed":5702,"ship":5703,"Ġsprinklers":5704,"Ġordering":5705,"Ġbungee":5706,"Ġarchway":5707,"Ġslam":5708,"Ġcomplex":5709,"Ġshelves":5710,"teenag":5711,"snowboarder":5712,"Ġharvesting":5713,"Ġtomatoes":5714,"Ġtreadmill":5715,"Ġgoof":5716,"stroke":5717,"Ġenthusiastic":5718,"Ġsilhouetted":5719,"Ġmajor":5720,"Ġinnertube":5721,"Ġclarinet":5722,"chronized":5723,"Ġhealth":5724,"Ġpyramid":5725,"Ġcarousel":5726,"Ġpiggyback":5727,"military":5728,"Ġscottish":5729,"bre":5730,"city":5731,"fas":5732,"pic":5733,"wra":5734,"water":5735,"Ġir":5736,"Ġaband":5737,"inas":5738,"Ġsister":5739,"Ġbest":5740,"Ġpeach":5741,"Ġpets":5742,"Ġmist":5743,"Ġmatt":5744,"Ġcry":5745,"hic":5746,"Ġton":5747,"Ġtorn":5748,"ison":5749,"Ġdam":5750,"Ġfin":5751,"Ġstea":5752,"Ġwiping":5753,"Ġreal":5754,"Ġreview":5755,"Ġrim":5756,"Ġbaked":5757,"Ġny":5758,"Ġnood":5759,"Ġshack":5760,"Ġshines":5761,"ilted":5762,"Ġelder":5763,"adot":5764,"keys":5765,"Ġsket":5766,"Ġspin":5767,"Ġspins":5768,"aper":5769,"Ġbloss":5770,"Ġsunsh":5771,"ared":5772,"Ġflour":5773,"Ġtees":5774,"Ġhelmeted":5775,"Ġflu":5776,"Ġdried":5777,"Ġopened":5778,"Ġattent":5779,"Ġclothesline":5780,"Ġskyscra":5781,"Ġfountains":5782,"Ġcurved":5783,"Ġsquirt":5784,"Ġfoggy":5785,"Ġbutto":5786,"Ġcheckout":5787,"Ġrefre":5788,"Ġbaton":5789,"Ġvarying":5790,"Ġsculpting":5791,"Ġincline":5792,"Ġtracksuit":5793,"Ġcanoes":5794,"Ġtransp":5795,"inished":5796,"Ġhulaho":5797,"Ġinspect":5798,"Ġthose":5799,"Ġstrikes":5800,"Ġcompanion":5801,"bald":5802,"Ġbundle":5803,"Ġsacks":5804,"Ġhuddled":5805,"Ġactivities":5806,"Ġshelter":5807,"point":5808,"Ġutility":5809,"Ġmowing":5810,"Ġlanterns":5811,"Ġbarricade":5812,"Ġangry":5813,"Ġsunbathing":5814,"Ġavoid":5815,"turned":5816,"Ġipod":5817,"Ġprayer":5818,"soldiers":5819,"Ġmegaphone":5820,"customers":5821,"aking":5822,"bea":5823,"gear":5824,"nine":5825,"pong":5826,"ination":5827,"Ġsan":5828,"Ġoil":5829,"ero":5830,"Ġinc":5831,"Ġpon":5832,"Ġtam":5833,"Ġgen":5834,"ised":5835,"Ġstates":5836,"uty":5837,"Ġshirted":5838,"Ġshed":5839,"Ġshut":5840,"Ġchange":5841,"Ġworn":5842,"Ġspa":5843,"ulance":5844,"Ġsolo":5845,"isters":5846,"Ġperio":5847,"Ġcityscape":5848,"ubby":5849,"Ġparalle":5850,"Ġwalked":5851,"Ġpainter":5852,"Ġbarn":5853,"mentary":5854,"Ġprepar":5855,"perform":5856,"cola":5857,"Ġfeeds":5858,"neck":5859,"yset":5860,"cast":5861,"Ġshaves":5862,"Ġsweatshirts":5863,"letes":5864,"Ġgrills":5865,"Ġstrolls":5866,"Ġbreakfast":5867,"Ġmonks":5868,"Ġquad":5869,"Ġbraids":5870,"Ġblocked":5871,"Ġleashes":5872,"Ġpeer":5873,"Ġmicroscopes":5874,"Ġoperate":5875,"Ġspeeding":5876,"Ġdunk":5877,"Ġkayaker":5878,"Ġsaxoph":5879,"Ġnapping":5880,"Ġhammering":5881,"Ġopponents":5882,"Ġglan":5883,"Ġpolkadot":5884,"Ġsuperman":5885,"Ġcheeks":5886,"Ġmaterials":5887,"Ġwoven":5888,"Ġtexas":5889,"Ġassemble":5890,"Ġsemi":5891,"Ġcharacter":5892,"Ġadorned":5893,"Ġmiami":5894,"Ġkimono":5895,"Ġscientist":5896,"players":5897,"Ġunfinished":5898,"Ġexplaining":5899,"Ġblindfold":5900,"Ġnurses":5901,"Ġyawning":5902,"Ġborder":5903,"Ġambulance":5904,"Ġmemorial":5905,"Ġpingpong":5906,"Ġancient":5907,"Ġteeshirt":5908,"ah":5909,"bus":5910,"cart":5911,"fl":5912,"fish":5913,"my":5914,"pt":5915,"Ġer":5916,"Ġaward":5917,"ermen":5918,"ret":5919,"Ġinline":5920,"Ġpom":5921,"Ġplow":5922,"Ġmes":5923,"Ġmats":5924,"Ġthrew":5925,"Ġcivil":5926,"ndown":5927,"Ġhus":5928,"Ġhusk":5929,"ladies":5930,"Ġtoe":5931,"ider":5932,"andom":5933,"icely":5934,"icature":5935,"Ġyour":5936,"Ġreh":5937,"Ġrena":5938,"Ġlie":5939,"ston":5940,"Ġjam":5941,"Ġbaggy":5942,"Ġnicely":5943,"Ġrobot":5944,"aded":5945,"Ġparent":5946,"Ġposed":5947,"Ġcaricature":5948,"Ġrag":5949,"Ġfort":5950,"Ġridden":5951,"Ġhanded":5952,"Ġhandles":5953,"Ġsurve":5954,"uddles":5955,"Ġdanger":5956,"Ġmidjump":5957,"Ġwalker":5958,"Ġprov":5959,"Ġcable":5960,"Ġbarren":5961,"Ġslicing":5962,"anged":5963,"Ġbows":5964,"velin":5965,"cakes":5966,"Ġfilmed":5967,"worker":5968,"Ġpatron":5969,"Ġstrolling":5970,"Ġcolumn":5971,"Ġimp":5972,"Ġmedit":5973,"Ġvaul":5974,"Ġcookies":5975,"Ġgliding":5976,"Ġcampus":5977,"Ġpatiently":5978,"Ġsuch":5979,"Ġtrimming":5980,"Ġphones":5981,"Ġparasailing":5982,"Ġfetching":5983,"Ġcrawls":5984,"Ġmassive":5985,"Ġmaybe":5986,"Ġdescending":5987,"Ġwatermelons":5988,"Ġflex":5989,"Ġextreme":5990,"Ġskydiving":5991,"Ġunloading":5992,"Ġseesaw":5993,"Ġcannon":5994,"Ġvertical":5995,"motorc":5996,"Ġhandlebars":5997,"Ġconnected":5998,"Ġperiod":5999,"Ġparallel":6000,"Ġrenaiss":6001,"ably":6002,"clad":6003,"die":6004,"dark":6005,"dirt":6006,"gling":6007,"held":6008,"olo":6009,"ograph":6010,"por":6011,"phic":6012,"vation":6013,"Ġwool":6014,"Ġple":6015,"Ġdrying":6016,"Ġfid":6017,"Ġheat":6018,"orange":6019,"idated":6020,"cho":6021,"chinese":6022,"Ġlim":6023,"Ġjazz":6024,"Ġrose":6025,"bour":6026,"Ġpoke":6027,"Ġless":6028,"Ġmoon":6029,"Ġvoc":6030,"Ġhandheld":6031,"Ġsoil":6032,"rug":6033,"Ġscattered":6034,"Ġoffering":6035,"Ġparts":6036,"Ġsuite":6037,"Ġtends":6038,"Ġsweatpants":6039,"Ġbarking":6040,"Ġsawing":6041,"Ġcoveralls":6042,"Ġflame":6043,"Ġpartner":6044,"Ġfully":6045,"brunette":6046,"Ġfamilies":6047,"Ġcrazy":6048,"rolling":6049,"Ġchased":6050,"Ġpicker":6051,"Ġforms":6052,"Ġweld":6053,"Ġseafood":6054,"Ġladders":6055,"ifying":6056,"Ġtyping":6057,"Ġcollie":6058,"Ġwrapping":6059,"Ġstrings":6060,"Ġdishwash":6061,"Ġleader":6062,"Ġcrib":6063,"idential":6064,"Ġdemonstrates":6065,"Ġfocusing":6066,"Ġleafy":6067,"Ġchickens":6068,"Ġsimilarly":6069,"Ġcooler":6070,"Ġcabin":6071,"Ġmuzzled":6072,"Ġwonder":6073,"Ġpressure":6074,"uzzy":6075,"Ġstirs":6076,"Ġclutching":6077,"Ġelevated":6078,"Ġexploring":6079,"Ġoccup":6080,"hammer":6081,"Ġmaneuver":6082,"Ġsynchronized":6083,"Ġbarbecuing":6084,"Ġsooners":6085,"Ġautomobile":6086,"Ġpolitical":6087,"Ġjohn":6088,"Ġdeserted":6089,"Ġcampsite":6090,"fashi":6091,"picture":6092,"Ġabandoned":6093,"Ġpreparation":6094,"Ġrenaissance":6095,"gr":6096,"glass":6097,"gentle":6098,"rise":6099,"Ġaboard":6100,"Ġaff":6101,"Ġself":6102,"Ġour":6103,"Ġinstruction":6104,"Ġmill":6105,"Ġmime":6106,"Ġcats":6107,"Ġtor":6108,"Ġted":6109,"Ġtul":6110,"rols":6111,"Ġdrop":6112,"oma":6113,"Ġtoes":6114,"Ġtoast":6115,"Ġdots":6116,"ray":6117,"Ġann":6118,"Ġjar":6119,"Ġloud":6120,"Ġcoke":6121,"seen":6122,"Ġbackstroke":6123,"Ġsomewhat":6124,"Ġupright":6125,"Ġvio":6126,"Ġovercoat":6127,"hoe":6128,"Ġfav":6129,"Ġseg":6130,"Ġheadgear":6131,"Ġbuses":6132,"Ġaccep":6133,"Ġheight":6134,"Ġbrand":6135,"Ġfloppy":6136,"Ġskateboarders":6137,"Ġunders":6138,"Ġmuscle":6139,"Ġchews":6140,"climb":6141,"Ġitself":6142,"angu":6143,"Ġcartwheel":6144,"new":6145,"izes":6146,"Ġbridal":6147,"Ġelementary":6148,"Ġgifts":6149,"Ġfilm":6150,"Ġamericans":6151,"Ġshave":6152,"ultane":6153,"Ġcurrent":6154,"Ġdistant":6155,"Ġclap":6156,"Ġrelay":6157,"Ġgrown":6158,"Ġlegos":6159,"Ġviolins":6160,"Ġscreens":6161,"Ġenglish":6162,"Ġcelebrates":6163,"Ġhooping":6164,"Ġprincess":6165,"Ġpackages":6166,"Ġmagn":6167,"wheeled":6168,"Ġhalter":6169,"Ġharnesses":6170,"Ġsimultane":6171,"dancers":6172,"Ġretrieving":6173,"Ġthinking":6174,"Ġballerinas":6175,"Ġtechn":6176,"Ġtechnic":6177,"Ġregister":6178,"surfer":6179,"Ġdropping":6180,"Ġenclosure":6181,"Ġpowder":6182,"Ġmeasuring":6183,"Ġcocacola":6184,"Ġstruggling":6185,"Ġcitizens":6186,"Ġjavelin":6187,"Ġsausages":6188,"Ġinstall":6189,"Ġmarkings":6190,"lapidated":6191,"Ġxylophone":6192,"Ġmattress":6193,"Ġbuttondown":6194,"beautiful":6195,"Ġdishwasher":6196,"action":6197,"bike":6198,"come":6199,"col":6200,"first":6201,"filled":6202,"gn":6203,"ib":6204,"kely":6205,"prin":6206,"uce":6207,"ware":6208,"Ġsight":6209,"Ġsucking":6210,"Ġwre":6211,"Ġwit":6212,"Ġwades":6213,"Ġcushi":6214,"len":6215,"isk":6216,"Ġdyed":6217,"Ġfeel":6218,"Ġfuzzy":6219,"Ġhed":6220,"Ġhops":6221,"allet":6222,"Ġwicker":6223,"unte":6224,"allic":6225,"Ġrit":6226,"Ġwhiteboard":6227,"cement":6228,"Ġsmart":6229,"bob":6230,"Ġcartoon":6231,"Ġchap":6232,"Ġdressing":6233,"Ġsomebody":6234,"Ġspir":6235,"Ġseeds":6236,"Ġgocart":6237,"Ġunison":6238,"Ġunseen":6239,"undred":6240,"Ġlikely":6241,"Ġguests":6242,"Ġguiding":6243,"Ġhelped":6244,"Ġwheat":6245,"Ġbasement":6246,"she":6247,"shop":6248,"Ġsingers":6249,"Ġoldfashi":6250,"Ġwindbre":6251,"Ġexca":6252,"Ġsheer":6253,"Ġcrosslegged":6254,"Ġdrivers":6255,"Ġdribbling":6256,"Ġdilapidated":6257,"Ġtanktop":6258,"Ġsubmer":6259,"Ġfilms":6260,"Ġsnowboards":6261,"Ġequestrian":6262,"roller":6263,"Ġrailway":6264,"Ġblower":6265,"Ġstrap":6266,"Ġhappening":6267,"Ġrailings":6268,"Ġpitching":6269,"Ġpedals":6270,"Ġspec":6271,"Ġcashi":6272,"Ġreflecting":6273,"Ġpadded":6274,"Ġmagic":6275,"Ġzom":6276,"Ġesc":6277,"Ġtugging":6278,"Ġrollerblader":6279,"Ġmule":6280,"Ġbouncy":6281,"Ġjewish":6282,"Ġpigeon":6283,"Ġceremon":6284,"Ġexcitedly":6285,"prof":6286,"Ġseeming":6287,"Ġremoving":6288,"Ġpurchasing":6289,"Ġeverywhere":6290,"Ġcommunic":6291,"Ġflea":6292,"Ġattendant":6293,"Ġacrobatic":6294,"Ġsearching":6295,"Ġscratching":6296,"Ġstockings":6297,"Ġcoconut":6298,"Ġfleece":6299,"striped":6300,"Ġapparently":6301,"Ġvibrant":6302,"teenagers":6303,"Ġtambour":6304,"Ġteddy":6305,"Ġtulips":6306,"Ġfavor":6307,"Ġoldfashioned":6308,"ac":6309,"bra":6310,"ele":6311,"muffs":6312,"over":6313,"ura":6314,"Ġq":6315,"Ġur":6316,"Ġsipping":6317,"Ġsamp":6318,"Ġbell":6319,"Ġpans":6320,"Ġthing":6321,"Ġtip":6322,"Ġoncoming":6323,"Ġfer":6324,"Ġhom":6325,"atula":6326,"esus":6327,"ldressed":6328,"opard":6329,"Ġhikes":6330,"Ġsitu":6331,"Ġjesus":6332,"Ġbaking":6333,"Ġnational":6334,"vern":6335,"riers":6336,"Ġroping":6337,"Ġtap":6338,"Ġkore":6339,"Ġforming":6340,"Ġleopard":6341,"Ġseating":6342,"Ġperf":6343,"vest":6344,"Ġthemed":6345,"Ġproper":6346,"Ġproba":6347,"Ġsignal":6348,"Ġmush":6349,"Ġkiddie":6350,"Ġexotic":6351,"Ġdevices":6352,"rict":6353,"Ġcheers":6354,"Ġveil":6355,"Ġtrainer":6356,"iven":6357,"Ġbears":6358,"Ġmetallic":6359,"weed":6360,"Ġeleg":6361,"Ġbreath":6362,"Ġshake":6363,"Ġdrain":6364,"Ġconcession":6365,"Ġfourwheel":6366,"Ġsquin":6367,"Ġsquad":6368,"Ġdistrict":6369,"osed":6370,"Ġformally":6371,"Ġweeds":6372,"Ġearmuffs":6373,"Ġresidential":6374,"Ġpaintbrush":6375,"Ġcontrols":6376,"Ġyoyo":6377,"Ġcrut":6378,"Ġshaded":6379,"Ġbalanced":6380,"Ġstocking":6381,"Ġteaches":6382,"Ġzoo":6383,"Ġwetsuits":6384,"Ġpanel":6385,"Ġmopping":6386,"Ġconfetti":6387,"Ġfloaties":6388,"Ġstorage":6389,"Ġwarming":6390,"Ġremote":6391,"Ġrecre":6392,"Ġattraction":6393,"Ġheavyset":6394,"Ġtuxedos":6395,"Ġsepar":6396,"Ġpockets":6397,"Ġselection":6398,"Ġwristband":6399,"Ġpride":6400,"Ġuk":6401,"Ġrabbits":6402,"Ġrusty":6403,"Ġanticip":6404,"Ġdolphin":6405,"Ġflooded":6406,"Ġcathed":6407,"Ġcultural":6408,"Ġhusband":6409,"Ġrehear":6410,"Ġsimultaneously":6411,"Ġcashier":6412,"Ġfavorite":6413,"Ġprobably":6414,"cars":6415,"capped":6416,"dra":6417,"mely":6418,"ties":6419,"yellow":6420,"Ġque":6421,"anitor":6422,"Ġbatt":6423,"Ġmad":6424,"Ġtelling":6425,"Ġones":6426,"Ġtook":6427,"andex":6428,"Ġdozen":6429,"chet":6430,"Ġank":6431,"Ġrandom":6432,"wns":6433,"Ġloll":6434,"Ġblu":6435,"Ġloose":6436,"Ġlave":6437,"Ġladen":6438,"Ġgraphic":6439,"Ġcarved":6440,"Ġchore":6441,"Ġbuck":6442,"Ġhate":6443,"Ġsnowstorm":6444,"Ġsnowcapped":6445,"xture":6446,"Ġsolid":6447,"Ġcloses":6448,"Ġscale":6449,"Ġgoats":6450,"ased":6451,"Ġsunhat":6452,"Ġwoodland":6453,"Ġhello":6454,"Ġarray":6455,"Ġswimwear":6456,"Ġdarkened":6457,"pect":6458,"Ġwinding":6459,"Ġexit":6460,"Ġtrio":6461,"Ġbesides":6462,"Ġcorrid":6463,"Ġcrest":6464,"Ġcreate":6465,"Ġcreates":6466,"Ġcompetes":6467,"Ġcurling":6468,"otion":6469,"Ġwinning":6470,"Ġcarried":6471,"Ġflowery":6472,"Ġgrins":6473,"Ġweights":6474,"Ġcontin":6475,"Ġseason":6476,"Ġmilling":6477,"Ġmonster":6478,"Ġintric":6479,"Ġsleds":6480,"Ġcontains":6481,"Ġeager":6482,"Ġparticipants":6483,"Ġmulticolor":6484,"Ġsculptures":6485,"Ġprofess":6486,"Ġkinds":6487,"Ġrounds":6488,"Ġcooked":6489,"Ġcasts":6490,"Ġsumo":6491,"Ġrubble":6492,"Ġmessage":6493,"firemen":6494,"Ġwasher":6495,"Ġdesigned":6496,"Ġreceives":6497,"Ġexercises":6498,"Ġsailboats":6499,"Ġliquor":6500,"Ġstorm":6501,"Ġpretends":6502,"Ġbarrels":6503,"Ġelectronics":6504,"Ġcabinet":6505,"Ġfeatures":6506,"Ġmuzzles":6507,"Ġdefender":6508,"Ġsemic":6509,"Ġarrange":6510,"Ġarranged":6511,"Ġwakeboarding":6512,"Ġcaptured":6513,"Ġhopping":6514,"Ġsari":6515,"Ġsombr":6516,"Ġspongebob":6517,"Ġhauling":6518,"Ġarchitecture":6519,"cowboy":6520,"Ġbuttons":6521,"Ġcyl":6522,"Ġdepicting":6523,"Ġpuzzle":6524,"Ġculture":6525,"Ġdestination":6526,"Ġstrawberry":6527,"Ġadolescent":6528,"Ġdessert":6529,"semble":6530,"Ġdominoes":6531,"Ġvocal":6532,"Ġritual":6533,"undreds":6534,"Ġceremonial":6535,"Ġcathedral":6536,"Ġlollip":6537,"bell":6538,"cal":6539,"fo":6540,"gun":6541,"lin":6542,"sy":6543,"writ":6544,"Ġult":6545,"Ġsure":6546,"Ġbong":6547,"Ġmel":6548,"Ġmick":6549,"Ġcinder":6550,"hist":6551,"rong":6552,"arat":6553,"Ġgiven":6554,"Ġdent":6555,"Ġdental":6556,"enger":6557,"orse":6558,"Ġreve":6559,"Ġhides":6560,"Ġlumber":6561,"Ġlangu":6562,"Ġany":6563,"Ġrig":6564,"stal":6565,"Ġbale":6566,"Ġlost":6567,"Ġshing":6568,"Ġdownward":6569,"Ġbee":6570,"Ġhero":6571,"Ġtalent":6572,"Ġchubby":6573,"Ġbackward":6574,"Ġlegged":6575,"Ġmoss":6576,"Ġovercast":6577,"Ġspl":6578,"Ġspatula":6579,"Ġspandex":6580,"Ġtravers":6581,"igan":6582,"hole":6583,"Ġunit":6584,"Ġliber":6585,"Ġcombat":6586,"Ġbicycl":6587,"ski":6588,"antily":6589,"Ġtheme":6590,"ggers":6591,"Ġproc":6592,"Ġcause":6593,"Ġsalad":6594,"Ġartific":6595,"Ġobama":6596,"Ġsurroundings":6597,"Ġdisney":6598,"Ġdesc":6599,"Ġdiaper":6600,"gray":6601,"Ġamish":6602,"Ġcompetitors":6603,"corn":6604,"Ġviews":6605,"Ġgrima":6606,"groups":6607,"Ġcircus":6608,"Ġbusinessmen":6609,"Ġchip":6610,"Ġcutout":6611,"Ġpedal":6612,"Ġtowed":6613,"Ġcardigan":6614,"Ġprotect":6615,"Ġpiercing":6616,"Ġdaily":6617,"Ġassisting":6618,"Ġslot":6619,"Ġtackles":6620,"Ġdonkeys":6621,"Ġwheelchairs":6622,"Ġrubs":6623,"Ġmessenger":6624,"Ġbilli":6625,"Ġcarpeted":6626,"Ġtightrope":6627,"Ġheadscarves":6628,"Ġelephants":6629,"Ġpopcorn":6630,"Ġpretz":6631,"Ġexhibition":6632,"Ġpriest":6633,"Ġbagpipe":6634,"Ġdelivery":6635,"Ġkites":6636,"Ġawait":6637,"Ġeveryone":6638,"Ġgeese":6639,"Ġpeeks":6640,"Ġtickets":6641,"Ġoverlook":6642,"Ġnewlywed":6643,"Ġfeathered":6644,"Ġpotatoes":6645,"Ġcongregate":6646,"Ġreclining":6647,"Ġalcoholic":6648,"Ġconcentrating":6649,"Ġcubicle":6650,"Ġconstructing":6651,"Ġextremely":6652,"Ġlettering":6653,"Ġarab":6654,"Ġobscured":6655,"Ġhamburgers":6656,"Ġgallo":6657,"Ġrespo":6658,"Ġhorizontal":6659,"Ġtongs":6660,"Ġsunshine":6661,"Ġpokemon":6662,"Ġtechnician":6663,"shoppers":6664,"Ġwindbreaker":6665,"Ġsubmerged":6666,"Ġlavender":6667,"Ġcorridor":6668,"Ġultimate":6669,"Ġliberty":6670,"every":6671,"mem":6672,"tic":6673,"yor":6674,"Ġsorts":6675,"Ġok":6676,"anting":6677,"anke":6678,"Ġpear":6679,"Ġpam":6680,"Ġpuffy":6681,"Ġgum":6682,"Ġdor":6683,"Ġditch":6684,"Ġferry":6685,"Ġisra":6686,"Ġstitch":6687,"Ġwielding":6688,"onlookers":6689,"Ġtopped":6690,"Ġdoc":6691,"Ġdod":6692,"Ġretail":6693,"Ġplaypen":6694,"Ġangle":6695,"Ġansw":6696,"Ġrising":6697,"Ġbage":6698,"Ġholes":6699,"Ġfrolic":6700,"Ġstrewn":6701,"Ġends":6702,"Ġbeating":6703,"Ġbeyo":6704,"Ġket":6705,"Ġsomeones":6706,"Ġrake":6707,"Ġrafts":6708,"Ġmac":6709,"Ġskil":6710,"Ġveter":6711,"Ġwaff":6712,"Ġcrowds":6713,"Ġclosing":6714,"icking":6715,"eper":6716,"Ġunident":6717,"Ġunwra":6718,"Ġheadfirst":6719,"Ġdangling":6720,"Ġbringing":6721,"Ġproced":6722,"Ġbaseman":6723,"Ġtanned":6724,"shaped":6725,"Ġarmed":6726,"Ġexits":6727,"Ġdeal":6728,"Ġapparat":6729,"Ġagility":6730,"Ġmarina":6731,"angle":6732,"Ġpastries":6733,"Ġdisco":6734,"Ġhilly":6735,"Ġpassion":6736,"Ġbowtie":6737,"Ġbearing":6738,"Ġjogger":6739,"Ġcompetitor":6740,"Ġplu":6741,"Ġraining":6742,"Ġviewed":6743,"Ġbetter":6744,"Ġwrite":6745,"Ġsilk":6746,"Ġstraps":6747,"Ġpatrol":6748,"arments":6749,"looker":6750,"Ġearb":6751,"Ġdocked":6752,"Ġresort":6753,"Ġdirects":6754,"Ġinterested":6755,"Ġtubes":6756,"essional":6757,"Ġsmock":6758,"Ġartistic":6759,"Ġengaging":6760,"Ġtromb":6761,"Ġoperation":6762,"Ġslopes":6763,"Ġpulley":6764,"Ġvast":6765,"Ġrounding":6766,"Ġpairs":6767,"Ġsteer":6768,"Ġwineglasses":6769,"Ġpinned":6770,"Ġbuttonup":6771,"Ġcobbled":6772,"Ġpositioned":6773,"paved":6774,"Ġpowerpoint":6775,"shore":6776,"Ġpretend":6777,"Ġpopping":6778,"Ġkeeps":6779,"Ġkeeping":6780,"Ġgowns":6781,"Ġemerges":6782,"Ġslab":6783,"Ġdotted":6784,"Ġrugs":6785,"Ġawaits":6786,"Ġrecently":6787,"Ġsniffs":6788,"Ġrecords":6789,"Ġwelldressed":6790,"Ġlantern":6791,"Ġkimonos":6792,"Ġstained":6793,"Ġsymbols":6794,"Ġquestion":6795,"Ġvacation":6796,"flowers":6797,"Ġgoofy":6798,"Ġnoodles":6799,"Ġpomp":6800,"motorcycle":6801,"gentleman":6802,"Ġtechni":6803,"Ġkorean":6804,"Ġcrutches":6805,"Ġprofessor":6806,"Ġmickey":6807,"Ġsplits":6808,"Ġartificial":6809,"Ġbeyond":6810,"aks":6811,"bare":6812,"bird":6813,"bicycle":6814,"par":6815,"rd":6816,"sion":6817,"tand":6818,"tim":6819,"Ġaid":6820,"inter":6821,"Ġsin":6822,"Ġoll":6823,"Ġbats":6824,"Ġpeel":6825,"Ġpiled":6826,"Ġpunk":6827,"Ġcem":6828,"Ġgain":6829,"Ġonlooker":6830,"Ġdivid":6831,"Ġhon":6832,"ene":6833,"oming":6834,"Ġwigs":6835,"una":6836,"etery":6837,"Ġyear":6838,"Ġyanke":6839,"Ġrises":6840,"Ġjanitor":6841,"Ġbas":6842,"Ġloaf":6843,"Ġlounges":6844,"Ġsmelling":6845,"Ġhaired":6846,"Ġpail":6847,"Ġpavil":6848,"Ġtagged":6849,"Ġpoking":6850,"Ġkilts":6851,"Ġbud":6852,"Ġbug":6853,"Ġrather":6854,"Ġmaster":6855,"Ġlemon":6856,"blem":6857,"Ġbrownish":6858,"Ġtrays":6859,"Ġhandic":6860,"Ġconve":6861,"Ġsolder":6862,"Ġscope":6863,"Ġscantily":6864,"Ġoffers":6865,"Ġpercuss":6866,"ffy":6867,"Ġunion":6868,"Ġunited":6869,"Ġlives":6870,"Ġguitarists":6871,"olf":6872,"Ġaccess":6873,"Ġadvent":6874,"umbling":6875,"Ġpurs":6876,"Ġclimbed":6877,"Ġensemble":6878,"Ġarmor":6879,"Ġcables":6880,"ricans":6881,"Ġchew":6882,"Ġcapri":6883,"Ġcaptain":6884,"Ġcoverings":6885,"Ġknow":6886,"Ġfrance":6887,"ortment":6888,"color":6889,"Ġbowing":6890,"Ġskipping":6891,"scope":6892,"kerchi":6893,"Ġalike":6894,"Ġcord":6895,"Ġeyed":6896,"Ġcurious":6897,"Ġgloved":6898,"Ġgraffitied":6899,"Ġstruggles":6900,"Ġweigh":6901,"Ġseashore":6902,"Ġsurfboards":6903,"Ġimport":6904,"Ġimpro":6905,"Ġcollide":6906,"Ġtowels":6907,"Ġcali":6908,"Ġshady":6909,"Ġshielding":6910,"Ġleashed":6911,"Ġstarts":6912,"Ġstarring":6913,"Ġstreamers":6914,"Ġparticipates":6915,"Ġprotester":6916,"Ġassortment":6917,"Ġfighters":6918,"Ġwashington":6919,"Ġguarding":6920,"Ġvase":6921,"Ġpancake":6922,"Ġtwister":6923,"Ġdonations":6924,"Ġappearing":6925,"Ġdunes":6926,"Ġdunking":6927,"almon":6928,"Ġknitted":6929,"Ġconfused":6930,"Ġrubbing":6931,"Ġpeaceful":6932,"Ġembraces":6933,"Ġcondition":6934,"Ġtightly":6935,"Ġpitbull":6936,"Ġparachuting":6937,"Ġextra":6938,"Ġorganized":6939,"Ġextends":6940,"Ġkitty":6941,"Ġkitten":6942,"Ġtricycles":6943,"Ġassembling":6944,"Ġpumpkins":6945,"Ġbreathing":6946,"Ġstyled":6947,"Ġbronze":6948,"bicyclists":6949,"Ġpoodles":6950,"Ġsparklers":6951,"Ġapparel":6952,"Ġhooked":6953,"Ġjudges":6954,"Ġsaris":6955,"Ġturtleneck":6956,"Ġhistoric":6957,"Ġaddresses":6958,"Ġarabic":6959,"Ġcockpit":6960,"Ġcontemplating":6961,"photograph":6962,"Ġcentral":6963,"Ġpopsicle":6964,"Ġitalian":6965,"Ġexchange":6966,"swimmers":6967,"Ġgrasping":6968,"Ġbuddhist":6969,"Ġsnowmobile":6970,"Ġcrystal":6971,"Ġfluore":6972,"Ġhulahoop":6973,"performers":6974,"Ġsaxophones":6975,"Ġassembled":6976,"Ġhusky":6977,"Ġdangerous":6978,"Ġmagnifying":6979,"Ġseemingly":6980,"Ġbattling":6981,"Ġpamph":6982,"Ġisrael":6983,"Ġapparatus":6984,"Ġcemetery":6985,"Ġpercussion":6986,"kerchief":6987,"cs":6988,"care":6989,"ebra":6990,"gin":6991,"game":6992,"homa":6993,"ila":6994,"iver":6995,"ja":6996,"lined":6997,"mined":6998,"nia":6999,"ody":7000,"tors":7001,"zil":7002,"Ġawk":7003,"Ġsi":7004,"Ġsalmon":7005,"Ġincoming":7006,"Ġmr":7007,"Ġmount":7008,"Ġmallet":7009,"Ġthread":7010,"Ġtesting":7011,"roning":7012,"Ġgay":7013,"Ġgrip":7014,"Ġginger":7015,"ism":7016,"Ġdar":7017,"Ġdug":7018,"Ġfut":7019,"Ġfoo":7020,"Ġfier":7021,"Ġfiring":7022,"lahoma":7023,"Ġtote":7024,"idge":7025,"Ġplayhouse":7026,"Ġanvil":7027,"Ġrund":7028,"Ġrustic":7029,"sty":7030,"Ġcola":7031,"Ġgirlfriend":7032,"Ġfrowning":7033,"Ġshapes":7034,"ups":7035,"adult":7036,"Ġbeans":7037,"velo":7038,"Ġbackhoe":7039,"Ġraw":7040,"Ġmasc":7041,"Ġmaker":7042,"Ġskill":7043,"formed":7044,"Ġridge":7045,"Ġmos":7046,"Ġorders":7047,"Ġoverh":7048,"Ġoverturned":7049,"aint":7050,"Ġhandkerchief":7051,"Ġsoars":7052,"Ġsoaked":7053,"Ġsoaking":7054,"Ġscri":7055,"Ġscary":7056,"Ġscared":7057,"Ġoffer":7058,"Ġgoers":7059,"Ġgondo":7060,"ista":7061,"isted":7062,"down":7063,"Ġhairy":7064,"Ġhairnet":7065,"Ġcler":7066,"Ġclip":7067,"Ġclust":7068,"Ġshots":7069,"Ġarched":7070,"Ġpregn":7071,"Ġsuitcases":7072,"Ġboot":7073,"Ġtend":7074,"Ġwinds":7075,"Ġexcept":7076,"ago":7077,"Ġsales":7078,"dden":7079,"rows":7080,"Ġfishermen":7081,"stride":7082,"ivan":7083,"angular":7084,"Ġripped":7085,"Ġnoses":7086,"Ġcloths":7087,"Ġpartly":7088,"Ġdisk":7089,"Ġpasserby":7090,"ronts":7091,"Ġmeter":7092,"Ġjoin":7093,"Ġstairwell":7094,"Ġindex":7095,"sps":7096,"Ġplush":7097,"Ġdramat":7098,"Ġshould":7099,"Ġfourth":7100,"Ġvolunte":7101,"Ġstudies":7102,"Ġsquat":7103,"Ġfolder":7104,"Ġbeagle":7105,"Ġcrab":7106,"Ġbutch":7107,"Ġrooster":7108,"berman":7109,"outdo":7110,"headed":7111,"Ġclause":7112,"Ġseaweed":7113,"Ġpotted":7114,"Ġmasked":7115,"Ġlittered":7116,"Ġcutoff":7117,"Ġsledge":7118,"Ġviolinist":7119,"Ġmeats":7120,"Ġstarbu":7121,"Ġeagle":7122,"Ġassorted":7123,"Ġzebra":7124,"Ġironing":7125,"Ġframes":7126,"Ġwineglass":7127,"Ġspeedo":7128,"Ġmixes":7129,"Ġkayakers":7130,"Ġhearts":7131,"Ġpengu":7132,"Ġamused":7133,"Ġfocuses":7134,"Ġbrooms":7135,"Ġparachutes":7136,"Ġknives":7137,"Ġwarri":7138,"crowds":7139,"Ġscruffy":7140,"Ġangels":7141,"Ġwakeboarder":7142,"Ġdelivering":7143,"Ġphys":7144,"arao":7145,"Ġtutus":7146,"Ġreclines":7147,"ippers":7148,"Ġbounds":7149,"Ġchiseling":7150,"Ġjudge":7151,"marathon":7152,"Ġshrub":7153,"Ġnavigates":7154,"estern":7155,"Ġsymbol":7156,"painted":7157,"bikers":7158,"Ġskelet":7159,"Ġslowly":7160,"Ġweapon":7161,"Ġdandelion":7162,"Ġskimpy":7163,"Ġtransporting":7164,"Ġmesh":7165,"Ġmeditating":7166,"Ġwelds":7167,"Ġaccepting":7168,"Ġcurrently":7169,"Ġcushion":7170,"Ġchaps":7171,"Ġescape":7172,"professional":7173,"Ġsamples":7174,"Ġelegant":7175,"Ġintricate":7176,"Ġlanguage":7177,"members":7178,"Ġkettle":7179,"Ġearbuds":7180,"Ġconveyor":7181,"Ġimportant":7182,"Ġfluorescent":7183,"Ġawkward":7184,"Ġrundown":7185,"Ġgondola":7186,"Ġpregnant":7187,"Ġstarbucks":7188,"aid":7189,"ben":7190,"cyclist":7191,"ecut":7192,"fans":7193,"gym":7194,"hel":7195,"horse":7196,"mit":7197,"mic":7198,"orous":7199,"ule":7200,"ued":7201,"you":7202,"Ġsed":7203,"Ġoar":7204,"Ġinse":7205,"Ġpep":7206,"Ġmoo":7207,"hikers":7208,"Ġtrou":7209,"rot":7210,"roid":7211,"Ġglow":7212,"Ġgap":7213,"Ġgarments":7214,"Ġdalm":7215,"Ġfu":7216,"Ġhuts":7217,"Ġwii":7218,"uni":7219,"ircle":7220,"Ġdoberman":7221,"ract":7222,"che":7223,"chef":7224,"sstand":7225,"Ġboston":7226,"Ġhipp":7227,"ersa":7228,"Ġjug":7229,"Ġner":7230,"eapp":7231,"Ġhost":7232,"Ġcob":7233,"Ġoutcro":7234,"Ġec":7235,"Ġaside":7236,"Ġherd":7237,"Ġgrain":7238,"Ġpokes":7239,"Ġpoker":7240,"Ġpoised":7241,"Ġkabo":7242,"Ġchallen":7243,"Ġchanging":7244,"Ġbuys":7245,"Ġford":7246,"Ġleis":7247,"Ġswamp":7248,"fornia":7249,"Ġbroch":7250,"Ġvo":7251,"Ġvel":7252,"Ġvine":7253,"Ġsnowbank":7254,"Ġconven":7255,"Ġconvert":7256,"igator":7257,"Ġfaced":7258,"Ġparag":7259,"skin":7260,"Ġpromo":7261,"torch":7262,"Ġener":7263,"Ġtether":7264,"Ġbarriers":7265,"Ġflipped":7266,"Ġmarri":7267,"Ġhighfive":7268,"Ġnewsstand":7269,"nyrd":7270,"Ġcowor":7271,"Ġshoesh":7272,"bride":7273,"Ġcrack":7274,"Ġgraffitico":7275,"Ġbottled":7276,"Ġpreser":7277,"Ġstructures":7278,"Ġgrin":7279,"Ġearring":7280,"Ġbanks":7281,"Ġcontact":7282,"Ġquart":7283,"Ġbrazil":7284,"Ġchic":7285,"Ġspending":7286,"Ġburgers":7287,"Ġshit":7288,"Ġtrot":7289,"Ġcircles":7290,"bags":7291,"Ġwatersk":7292,"Ġseattle":7293,"Ġzo":7294,"Ġcanoeing":7295,"Ġdrawings":7296,"Ġtwent":7297,"Ġobstacles":7298,"Ġdemol":7299,"Ġdunks":7300,"Ġpineapp":7301,"Ġmops":7302,"Ġprofessionals":7303,"Ġminivan":7304,"Ġentry":7305,"Ġjuggler":7306,"Ġstools":7307,"Ġkeys":7308,"Ġwashed":7309,"Ġowners":7310,"Ġglider":7311,"Ġdelic":7312,"Ġlamps":7313,"Ġgrandmother":7314,"Ġexpressions":7315,"Ġsupervis":7316,"Ġemerging":7317,"Ġbeaded":7318,"Ġregion":7319,"Ġlanes":7320,"ulated":7321,"Ġleotards":7322,"Ġaims":7323,"Ġmechanic":7324,"Ġdescend":7325,"Ġwelcome":7326,"Ġmcdonalds":7327,"Ġadorable":7328,"Ġsnaps":7329,"Ġdefensive":7330,"Ġrabbit":7331,"Ġstrong":7332,"Ġstruggle":7333,"Ġcitizen":7334,"Ġlimbs":7335,"Ġhamburger":7336,"Ġascending":7337,"Ġpatriotic":7338,"Ġsweet":7339,"Ġmingle":7340,"Ġstrumming":7341,"Ġproudly":7342,"Ġgreeting":7343,"Ġdamaged":7344,"Ġrefresh":7345,"Ġblindfolded":7346,"Ġvaulting":7347,"Ġoccupied":7348,"Ġinstructions":7349,"Ġsegway":7350,"Ġundershirt":7351,"Ġexcav":7352,"Ġzombie":7353,"Ġrehearsing":7354,"foam":7355,"Ġdentist":7356,"Ġbilliards":7357,"Ġpavilion":7358,"Ġmascara":7359,"Ġchallenge":7360,"Ġgraffiticovered":7361,"acts":7362,"bar":7363,"gas":7364,"iental":7365,"jack":7366,"li":7367,"mates":7368,"pat":7369,"pad":7370,"pipe":7371,"sks":7372,"stel":7373,"tation":7374,"weds":7375,"xim":7376,"Ġsights":7377,"Ġsips":7378,"Ġsisters":7379,"Ġwade":7380,"Ġoars":7381,"Ġbins":7382,"Ġbinder":7383,"Ġpun":7384,"Ġmight":7385,"Ġti":7386,"Ġtink":7387,"Ġtrous":7388,"Ġtilted":7389,"robe":7390,"Ġgates":7391,"Ġglowing":7392,"Ġdye":7393,"Ġisle":7394,"Ġmanip":7395,"Ġmanual":7396,"atic":7397,"omot":7398,"ory":7399,"orter":7400,"oriental":7401,"Ġtopp":7402,"rought":7403,"team":7404,"Ġlid":7405,"Ġanch":7406,"Ġjets":7407,"Ġjunk":7408,"Ġbales":7409,"Ġbagg":7410,"Ġbases":7411,"Ġnon":7412,"Ġlocked":7413,"Ġblacksm":7414,"Ġshined":7415,"Ġwallet":7416,"rimmed":7417,"illing":7418,"Ġlamb":7419,"keeper":7420,"Ġtaste":7421,"Ġchops":7422,"Ġbucked":7423,"Ġrapp":7424,"Ġrakes":7425,"Ġgreenhouse":7426,"Ġbrothers":7427,"airs":7428,"Ġconso":7429,"Ġworkman":7430,"Ġworkmen":7431,"Ġrocket":7432,"Ġwoodworking":7433,"Ġshouting":7434,"Ġguides":7435,"Ġmids":7436,"Ġroadwork":7437,"Ġadv":7438,"Ġflotation":7439,"Ġstrips":7440,"Ġexecut":7441,"haust":7442,"Ġsave":7443,"Ġsauna":7444,"Ġtrek":7445,"Ġslung":7446,"Ġalligator":7447,"Ġsleigh":7448,"Ġnothing":7449,"Ġpastry":7450,"Ġpassage":7451,"Ġcellular":7452,"Ġbookbag":7453,"Ġdiag":7454,"Ġmetrop":7455,"Ġbackpacker":7456,"Ġdrumsticks":7457,"bridge":7458,"Ġstoplight":7459,"Ġbeaker":7460,"Ġbeauty":7461,"Ġcrafting":7462,"stern":7463,"Ġblowtorch":7464,"Ġramps":7465,"Ġstradd":7466,"Ġhorsed":7467,"Ġgrinning":7468,"Ġbulls":7469,"Ġweb":7470,"Ġwelder":7471,"Ġresear":7472,"Ġdecorating":7473,"Ġinterior":7474,"Ġquilt":7475,"Ġfolk":7476,"iachi":7477,"Ġlocomot":7478,"Ġhammers":7479,"Ġposts":7480,"Ġprojected":7481,"Ġfighter":7482,"Ġfairy":7483,"Ġtelescopes":7484,"Ġseeing":7485,"Ġstetho":7486,"Ġentire":7487,"Ġpossible":7488,"Ġfingerna":7489,"Ġdollhouse":7490,"Ġentertainment":7491,"Ġreceive":7492,"Ġtossed":7493,"Ġsails":7494,"shot":7495,"Ġpunches":7496,"Ġretrieves":7497,"Ġmaintain":7498,"Ġexter":7499,"Ġextending":7500,"Ġbreakdancer":7501,"Ġtechno":7502,"Ġpresses":7503,"Ġparasol":7504,"Ġmerchant":7505,"Ġdrops":7506,"Ġdescends":7507,"Ġoccur":7508,"Ġbracelets":7509,"cotch":7510,"Ġsmoothing":7511,"Ġselecting":7512,"Ġlatin":7513,"Ġdefense":7514,"Ġreturn":7515,"Ġhistorical":7516,"Ġshrubs":7517,"Ġaddressing":7518,"Ġshields":7519,"Ġattaching":7520,"Ġdetermined":7521,"Ġsurgeon":7522,"Ġadmires":7523,"Ġsnorkel":7524,"Ġirish":7525,"Ġrimmed":7526,"Ġpatrons":7527,"grand":7528,"Ġinstalling":7529,"Ġhopscotch":7530,"Ġtambourine":7531,"Ġquit":7532,"Ġsquinting":7533,"Ġvocalist":7534,"Ġlollipop":7535,"Ġrevealing":7536,"Ġpretzels":7537,"Ġskillet":7538,"Ġunidentified":7539,"Ġprocedure":7540,"Ġcalifornia":7541,"Ġclipboard":7542,"Ġskeleton":7543,"uniformed":7544,"Ġconvenience":7545,"Ġconvertible":7546,"Ġchicago":7547,"Ġtrousers":7548,"Ġmetropol":7549,"acy":7550,"acent":7551,"but":7552,"big":7553,"din":7554,"haped":7555,"ij":7556,"ien":7557,"iors":7558,"lift":7559,"mountain":7560,"nal":7561,"ond":7562,"ration":7563,"tan":7564,"tennis":7565,"vet":7566,"vine":7567,"Ġver":7568,"Ġairl":7569,"Ġsip":7570,"Ġsatch":7571,"Ġwaring":7572,"Ġwanting":7573,"Ġwestern":7574,"Ġbree":7575,"reading":7576,"rock":7577,"Ġgated":7578,"Ġonce":7579,"Ġdip":7580,"omet":7581,"omas":7582,"itting":7583,"Ġstudy":7584,"Ġwizard":7585,"local":7586,"Ġtot":7587,"eding":7588,"Ġwhis":7589,"anda":7590,"andwhite":7591,"earing":7592,"icles":7593,"Ġrect":7594,"Ġrequ":7595,"Ġhidden":7596,"Ġlla":7597,"Ġsites":7598,"Ġnine":7599,"Ġnude":7600,"eastern":7601,"Ġcos":7602,"ummy":7603,"rill":7604,"Ġeater":7605,"ador":7606,"Ġpaw":7607,"Ġpage":7608,"Ġpause":7609,"Ġpastel":7610,"vend":7611,"veled":7612,"Ġgraying":7613,"Ġpour":7614,"Ġwatercraft":7615,"Ġforce":7616,"tled":7617,"ford":7618,"Ġcrochet":7619,"Ġmothers":7620,"Ġvers":7621,"Ġvess":7622,"Ġspout":7623,"Ġpersonal":7624,"Ġcontor":7625,"Ġsour":7626,"Ġscoring":7627,"Ġoffroad":7628,"Ġseal":7629,"Ġsequ":7630,"Ġsews":7631,"Ġworkben":7632,"estyle":7633,"ishing":7634,"skier":7635,"eeing":7636,"Ġcakes":7637,"Ġfootbridge":7638,"Ġdeere":7639,"Ġafro":7640,"Ġmarches":7641,"enna":7642,"Ġslip":7643,"Ġcanned":7644,"Ġcould":7645,"Ġpartying":7646,"Ġrestaurants":7647,"Ġdiam":7648,"Ġkitchenaid":7649,"Ġsnowboarders":7650,"Ġclassical":7651,"Ġmatches":7652,"Ġaudio":7653,"bery":7654,"Ġstationary":7655,"Ġpresum":7656,"Ġfunction":7657,"Ġlanded":7658,"Ġviet":7659,"Ġbanquet":7660,"Ġdecoration":7661,"Ġrepres":7662,"Ġvisit":7663,"Ġweaves":7664,"Ġsquares":7665,"Ġtypewrit":7666,"Ġpeaks":7667,"Ġtunic":7668,"Ġwindowsill":7669,"Ġtwin":7670,"Ġsteal":7671,"Ġeyeb":7672,"Ġdonuts":7673,"Ġharnessed":7674,"Ġtravelers":7675,"Ġsupported":7676,"Ġfinishes":7677,"Ġpetals":7678,"Ġadjacent":7679,"Ġcarpenter":7680,"Ġbounces":7681,"parents":7682,"Ġchoppy":7683,"Ġsecured":7684,"Ġtaxis":7685,"Ġwarning":7686,"Ġtrimmed":7687,"Ġprim":7688,"Ġiced":7689,"Ġpharm":7690,"Ġparasail":7691,"Ġsaluting":7692,"Ġleaned":7693,"Ġassembly":7694,"Ġcrowns":7695,"Ġtempor":7696,"bicyclist":7697,"Ġpirates":7698,"Ġcongregating":7699,"Ġspider":7700,"Ġconcentrates":7701,"Ġconstructed":7702,"Ġdiverse":7703,"Ġemotion":7704,"Ġscratches":7705,"Ġsomersa":7706,"thouse":7707,"Ġsprints":7708,"Ġwindsurfing":7709,"Ġsausage":7710,"Ġcoconuts":7711,"Ġgrowing":7712,"Ġgrowling":7713,"Ġflashlight":7714,"Ġarrive":7715,"Ġremain":7716,"Ġsample":7717,"Ġbonfire":7718,"Ġsqueezing":7719,"Ġgorilla":7720,"Ġninte":7721,"Ġsquirting":7722,"Ġenthusiastically":7723,"Ġreviewing":7724,"Ġattentively":7725,"Ġskyscrapers":7726,"Ġgener":7727,"olog":7728,"Ġlimo":7729,"Ġtorches":7730,"Ġannoun":7731,"eleven":7732,"Ġmushroom":7733,"Ġfourwheeler":7734,"Ġeagerly":7735,"Ġsemicircle":7736,"Ġshingles":7737,"Ġtrombone":7738,"Ġshrubbery":7739,"Ġshoeshine":7740,"Ġblacksmith":7741,"Ġstethoscope":7742,"Ġexterior":7743,"Ġtechnolo":7744,"Ġworkbench":7745,"bum":7746,"bread":7747,"cis":7748,"cier":7749,"sen":7750,"Ġking":7751,"Ġagg":7752,"Ġsuds":7753,"Ġwon":7754,"Ġinvest":7755,"Ġply":7756,"Ġmp":7757,"Ġcere":7758,"Ġtide":7759,"Ġtell":7760,"rofoam":7761,"Ġgy":7762,"Ġonlooking":7763,"Ġdil":7764,"Ġdren":7765,"Ġdart":7766,"Ġduff":7767,"Ġfists":7768,"engers":7769,"atown":7770,"itan":7771,"itation":7772,"itively":7773,"Ġstead":7774,"ories":7775,"rawn":7776,"Ġboating":7777,"Ġplac":7778,"Ġyet":7779,"Ġlinger":7780,"Ġrd":7781,"Ġnuts":7782,"east":7783,"eared":7784,"Ġhovering":7785,"Ġblues":7786,"adow":7787,"Ġbegging":7788,"Ġash":7789,"Ġsmok":7790,"Ġtasks":7791,"Ġgrace":7792,"Ġchunk":7793,"Ġbacklit":7794,"Ġforrest":7795,"Ġneat":7796,"individu":7797,"Ġridding":7798,"Ġcroco":7799,"Ġcroquet":7800,"Ġtram":7801,"Ġhandful":7802,"Ġhandmade":7803,"ppers":7804,"Ġsex":7805,"Ġsexy":7806,"Ġgovern":7807,"asion":7808,"Ġaircraft":7809,"Ġblown":7810,"Ġworked":7811,"Ġperformed":7812,"Ġrocker":7813,"Ġdrunk":7814,"Ġlizard":7815,"uddling":7816,"Ġwalkers":7817,"ques":7818,"Ġbring":7819,"ription":7820,"Ġdarker":7821,"Ġcompletes":7822,"pective":7823,"shes":7824,"Ġsweaty":7825,"Ġdaylight":7826,"Ġexhaust":7827,"Ġtribe":7828,"Ġmiddleage":7829,"Ġmiddleeastern":7830,"Ġappla":7831,"Ġsafe":7832,"erees":7833,"Ġfootballer":7834,"Ġslices":7835,"Ġslender":7836,"Ġnovel":7837,"Ġforefront":7838,"Ġfires":7839,"Ġopenair":7840,"Ġhighf":7841,"Ġdisp":7842,"stumed":7843,"cock":7844,"costumed":7845,"Ġattired":7846,"rona":7847,"Ġcords":7848,"Ġjobs":7849,"Ġindic":7850,"Ġmachet":7851,"Ġfills":7852,"Ġdrags":7853,"Ġlaps":7854,"Ġcurled":7855,"Ġhomework":7856,"Ġreferees":7857,"Ġcupcakes":7858,"Ġbatting":7859,"Ġschoolgirls":7860,"Ġlandsc":7861,"Ġbangs":7862,"Ġintern":7863,"Ġbarely":7864,"ucked":7865,"Ġputt":7866,"Ġrelaxed":7867,"Ġlitter":7868,"ension":7869,"Ġspraw":7870,"Ġpedaling":7871,"Ġmedals":7872,"Ġprotecting":7873,"Ġmirrored":7874,"Ġtroops":7875,"Ġbrightlycolored":7876,"Ġprofile":7877,"Ġfencers":7878,"Ġembroid":7879,"Ġmustard":7880,"Ġactors":7881,"Ġhalfway":7882,"Ġbalconies":7883,"Ġportion":7884,"Ġstacking":7885,"Ġdollar":7886,"Ġnaps":7887,"Ġchested":7888,"Ġsupporting":7889,"Ġpigs":7890,"Ġboulders":7891,"Ġpajama":7892,"Ġglides":7893,"Ġlayup":7894,"Ġleafless":7895,"Ġretrieve":7896,"crowded":7897,"Ġmainly":7898,"Ġdefending":7899,"Ġdefenders":7900,"Ġbreakdances":7901,"Ġpurchases":7902,"Ġdecide":7903,"Ġinstructing":7904,"Ġstyrofoam":7905,"teenage":7906,"Ġoddly":7907,"Ġchinatown":7908,"passengers":7909,"Ġcrayon":7910,"skateboard":7911,"Ġcurtains":7912,"Ġcaptures":7913,"Ġinterviewed":7914,"wearing":7915,"musician":7916,"Ġlatex":7917,"Ġknock":7918,"Ġquietly":7919,"Ġstainless":7920,"Ġgazebo":7921,"Ġwindsurfer":7922,"llywood":7923,"biker":7924,"Ġpatrick":7925,"Ġmittens":7926,"Ġspiked":7927,"Ġsolitary":7928,"Ġglacier":7929,"walks":7930,"Ġsurgeons":7931,"Ġsquirted":7932,"Ġglancing":7933,"busy":7934,"rugby":7935,"newly":7936,"colle":7937,"Ġhomes":7938,"Ġperfect":7939,"Ġonesie":7940,"Ġbongo":7941,"Ġmossy":7942,"Ġprocession":7943,"Ġdescri":7944,"Ġgalloping":7945,"Ġdorm":7946,"Ġpompoms":7947,"barefoot":7948,"Ġollie":7949,"Ġyankees":7950,"Ġhandicapped":7951,"Ġweighing":7952,"Ġconditions":7953,"Ġmarriage":7954,"Ġmanipula":7955,"Ġhorsedrawn":7956,"Ġvessel":7957,"Ġdiamond":7958,"Ġpresumably":7959,"Ġvietnam":7960,"Ġtemporary":7961,"Ġnintendo":7962,"Ġinvestig":7963,"Ġcereal":7964,"Ġdilig":7965,"Ġduffel":7966,"Ġcrocod":7967,"even":7968,"fronts":7969,"ka":7970,"kea":7971,"mal":7972,"mallow":7973,"nie":7974,"olored":7975,"olate":7976,"rup":7977,"rine":7978,"trucks":7979,"wer":7980,"wind":7981,"wise":7982,"zens":7983,"Ġauth":7984,"Ġaust":7985,"Ġawe":7986,"Ġactive":7987,"Ġava":7988,"Ġsons":7989,"Ġsize":7990,"Ġwok":7991,"anes":7992,"anse":7993,"Ġbone":7994,"Ġbillow":7995,"Ġpis":7996,"Ġpel":7997,"Ġpuddles":7998,"Ġcad":7999}