#version: 0.2
Ġ a
i n
in g
Ġ s
Ġ w
t h
Ġ o
a n
Ġ b
e r
r e
Ġ in
Ġ p
Ġ m
Ġ th
Ġ c
l e
h i
Ġ t
r o
Ġth e
a r
n d
Ġ g
i s
Ġo n
Ġ d
Ġ f
Ġ h
l a
a l
e n
Ġa nd
Ġo f
Ġ is
Ġm an
a t
o m
i t
c k
Ġs t
Ġw i
l o
Ġwi th
o r
e s
l d
u n
i r
o n
e t
Ġt o
i d
Ġw om
e d
Ġw hi
an d
Ġd o
e ar
k ing
ro u
o p
r a
Ġa re
w o
c h
Ġwom an
s s
Ġb o
Ġp la
i c
r t
Ġ y
Ġa t
al l
Ġ re
op le
e ople
t e
t wo
Ġ hi
er s
u t
o un
hi rt
t ing
Ġ l
Ġpla y
Ġw ear
g e
Ġwear ing
Ġa n
Ġ r
w n
Ġs hirt
e l
Ġst and
Ġs it
s t
Ġ j
Ġp eople
Ġb a
Ġ n
id e
oun g
u r
Ġ lo
Ġwhi te
e a
th er
Ġh o
g h
la ck
u e
ir l
Ġc o
Ġy oung
Ġb lack
Ġb l
Ġg irl
Ġf ro
u m
Ġs h
Ġwhi le
Ġhi s
Ġw al
Ġbl ue
Ġdo g
ld ing
t s
v er
Ġo ut
Ġbo y
Ġre d
Ġw at
u s
o o
c e
r i
Ġsit ting
hi ld
rou nd
Ġ ro
Ġstand ing
u p
Ġlo o
Ġst re
Ġc hild
Ġm en
i l
Ġplay ing
a m
ar d
Ġ e
a d
Ġstre et
rou p
n t
Ġdo wn
s e
Ġfro nt
Ġg roup
Ġ la
re e
Ġb e
Ġa s
Ġh er
Ġs m
o w
Ġwal king
lo w
om e
k s
Ġho lding
en t
k e
l l
Ġh a
Ġp a
v e
Ġt a
b o
Ġg ra
re ss
i on
c t
Ġp o
Ġwat er
Ġ k
t o
s ide
Ġc ar
Ġc h
i e
Ġd ress
on e
y ing
Ġba ck
Ġb u
i m
Ġb y
Ġs ome
Ġ up
th e
um p
re en
Ġw or
Ġ ra
Ġm a
Ġr un
Ġf or
Ġon e
t le
ar k
Ġn e
u it
Ġ le
Ġg reen
a ck
Ġs w
gh t
f or
Ġj ump
Ġloo king
Ġs k
in d
a y
for m
Ġb ro
Ġr id
Ġc ro
Ġh at
Ġm o
b le
Ġwom en
it tle
Ġs n
ar ge
Ġb i
re n
Ġo r
oo d
Ġout side
ea ch
Ġl arge
Ġ v
th ree
el low
ers on
Ġs ide
Ġy ellow
b all
Ġo ver
Ġbro wn
rou gh
Ġt wo
Ġl ittle
Ġs p
u l
Ġth rough
m an
Ġsn ow
a in
u re
Ġp erson
Ġb all
Ġt ra
Ġh and
i an
la ss
a ir
Ġfro m
Ġthe ir
Ġc on
c le
Ġo ther
l y
n ing
e m
x t
in k
ld er
Ġbu i
Ġchild ren
Ġwat ch
Ġbui lding
Ġj ack
Ġne xt
Ġin to
Ġw a
Ġjack et
p h
Ġsm all
g round
i ght
Ġ it
i g
h o
w d
n g
th ing
al k
a p
i re
v ing
Ġs o
Ġn ear
Ġcro wd
Ġdress ed
p eople
o ther
bo ard
Ġgra ss
Ġan other
an ge
Ġrun ning
o re
d y
Ġrid ing
t er
Ġc lo
ea d
Ġf a
p p
at e
r u
Ġc am
Ġs c
c er
Ġa round
a ge
an s
w alk
Ġor ange
ie ld
Ġta ble
Ġf ield
Ġof f
Ġs e
y cle
lass es
Ġg o
is t
r ying
Ġstand s
t ure
a s
Ġb each
i ck
Ġp er
e p
Ġback ground
Ġp ink
h ind
Ġbe hind
Ġa ir
Ġside walk
f f
le s
it y
in e
Ġb lo
Ġs un
Ġwor k
Ġjump ing
t ain
Ġ un
Ġper form
Ġp ic
Ġsh or
Ġsit s
Ġto p
Ġh ead
Ġro ck
b y
Ġcam er
u nd
il ing
Ġgirl s
Ġbi ke
Ġth at
Ġs ur
c ing
Ġd r
Ġw all
d o
Ġpic ture
at ing
Ġloo ks
Ġp ark
w ay
Ġha ir
Ġl i
Ġc l
ic e
Ġcamer a
Ġt al
Ġw ood
v es
u d
o ur
an ts
Ġc ity
Ġsh o
uit ar
Ġg uitar
Ġdog s
Ġb us
Ġc om
Ġj e
u b
Ġg u
Ġre ad
Ġplay er
l ing
ir t
es t
oun tain
Ġhi m
am e
Ġha s
ct ion
or s
oo l
Ġd an
Ġgra y
Ġb ic
Ġwor king
Ġso c
Ġshor ts
is h
Ġho ld
Ġa lo
o l
Ġas ian
Ġsome thing
ver al
ph one
m p
Ġo lder
Ġh el
Ġm id
Ġp ar
Ġtal king
Ġsoc cer
Ġco lo
Ġwal k
Ġa r
Ġb ri
s k
Ġblo nd
s hirt
q u
Ġun i
Ġp ants
Ġwal ks
Ġb en
i p
an t
oo t
Ġa c
Ġsk ate
Ġw h
d le
Ġthe m
Ġgu y
at ion
Ġje ans
Ġuni form
Ġsm iling
Ġplay s
ig n
Ġla dy
Ġboy s
g g
i ve
e e
Ġben ch
e at
Ġalo ng
Ġp re
k es
a re
Ġro ad
Ġa d
Ġsw im
Ġbic ycle
Ġh e
Ġs uit
le d
Ġb r
ri p
Ġf ood
at ch
g s
Ġbo o
ge ther
um b
Ġg ame
Ġcar rying
Ġto gether
Ġs and
Ġhold s
Ġp ur
Ġf lo
Ġp ro
im b
u ll
w ard
Ġskate board
Ġd ark
a le
Ġ us
Ġ und
Ġout do
Ġba se
Ġa bo
f our
s ing
Ġg et
Ġpa in
ea m
Ġund er
Ġcl imb
Ġcom p
Ġfa ce
p e
Ġt an
t or
Ġm ountain
s h
Ġg lasses
Ġd irt
u th
Ġba by
Ġst age
Ġ en
Ġar m
Ġst rip
f ul
Ġs ign
Ġm us
Ġlo ng
Ġhand s
Ġwa it
Ġs ing
Ġch air
Ġb al
a ther
Ġk id
el l
Ġbo at
Ġco at
Ġp ool
Ġm ic
Ġdo ing
Ġw ho
Ġt ree
Ġta king
en ce
Ġjump s
Ġwatch ing
i es
Ġc a
st ru
w om
Ġt e
ro ss
Ġo ld
Ġf oot
Ġco up
Ġmic ro
Ġw ind
Ġ each
m et
Ġt eam
Ġf em
u st
Ġh or
m er
Ġt shirt
Ġsw eat
Ġg round
Ġsh op
Ġare a
Ġba sk
Ġhel met
Ġbask et
f t
p le
Ġd ay
Ġb ar
se veral
Ġcoup le
Ġbase ball
Ġe x
Ġmo uth
e y
a ch
re d
Ġd e
r ic
es s
Ġch e
h a
Ġb and
Ġt ri
Ġ ve
Ġf l
Ġmo tor
Ġbe ing
Ġp ho
ur ing
Ġpho to
Ġloo k
p ing
Ġma le
stru ction
Ġc ap
Ġra ce
Ġstrip ed
Ġperform ing
g lasses
en ts
Ġmid dle
Ġcolo r
Ġmus ic
Ġto y
Ġro om
Ġsur f
Ġpur ple
a g
e el
Ġfem ale
Ġac ross
Ġsw ing
r y
Ġo p
o king
Ġto ward
ire d
Ġhor se
y oung
Ġsun glasses
Ġa f
Ġwind ow
Ġre st
Ġsh e
Ġcro ss
Ġs et
us h
c l
Ġst ore
Ġe ating
Ġa pp
Ġs a
Ġa g
d d
Ġm ar
er e
ro w
Ġco ver
Ġrun s
m ing
ther e
ck s
Ġg ather
Ġtra in
Ġfoot ball
n er
Ġt re
Ġf la
Ġa rt
m ent
m en
en n
Ġit s
Ġus ing
Ġo b
Ġread ing
it ch
Ġmicro phone
Ġf ish
Ġth ree
Ġs l
enn is
Ġd ri
j o
Ġpre p
an ce
Ġt ennis
e ct
Ġst ick
st r
us e
t ed
Ġm ark
ar ing
i v
Ġf low
Ġplay ers
an g
Ġa ll
Ġba g
Ġcon struction
Ġc atch
Ġflo or
Ġk n
Ġmotor c
Ġs le
Ġwatch es
re l
Ġad ul
Ġr i
i le
Ġwood en
Ġag ain
Ġn o
Ġrid es
Ġf ore
ce an
Ġagain st
Ġo cean
Ġc an
wom an
Ġf ire
Ġop en
Ġen jo
Ġsh ow
Ġpa st
Ġf r
Ġabo ut
Ġbasket ball
f it
or t
at ed
le y
bo y
lder ly
Ġbri ght
Ġdan cing
Ġclo th
a ur
Ġd uring
Ġdr in
ad e
Ġclo thing
c es
Ġco u
Ġout fit
Ġc le
an ing
Ġhi gh
Ġmark et
Ġbus y
Ġwait ing
Ġpar t
Ġclimb ing
Ġsur round
Ġget ting
ha ired
i o
ver y
p er
Ġtre es
Ġha ving
Ġrest aur
Ġd is
Ġswim ming
Ġhi ll
st um
Ġkid s
Ġe lderly
i al
Ġoutdo or
i x
Ġrestaur ant
umb rel
umbrel la
c o
Ġ umbrella
Ġco stum
Ġshirt s
Ġwork ers
k ers
Ġne w
Ġma king
Ġcolor ful
Ġmotorc ycle
Ġd es
Ġl ight
Ġpo sing
Ġpa ss
th ers
u gh
str um
Ġin strum
Ġthe y
Ġin side
le ss
ru ck
l er
Ġbo w
Ġth row
Ġcover ed
Ġsing ing
Ġt rying
Ġf ence
Ġf e
Ġb ear
Ġp ie
v el
Ġc ell
ut ting
Ġsle ep
il y
Ġbri ck
Ġsk i
Ġl ine
s ome
v ers
f e
y cl
s c
Ġpa th
p la
Ġb es
Ġe v
Ġ ice
Ġhat s
Ġk ick
Ġboo k
n y
Ġat t
k er
ro n
Ġd i
Ġbi g
Ġco w
Ġbo ard
Ġr ide
c hild
Ġ very
Ġpo l
Ġtoward s
o d
Ġsweat er
Ġcar t
Ġh u
g ra
Ġa m
Ġbes ide
Ġla ke
Ġa l
Ġn ight
Ġbo dy
p ack
Ġro ll
itch en
Ġk itchen
Ġt ruck
Ġsurround ed
Ġri ver
Ġcloth es
Ġcell phone
ck et
Ġm et
Ġgrass y
Ġback pack
Ġc or
Ġla ying
Ġp ush
Ġh ang
Ġarm s
th is
it ion
Ġj o
Ġoutdo ors
Ġtra ck
Ġc re
al s
Ġla ugh
ic an
Ġcomp et
Ġst air
Ġin d
Ġv est
Ġdr um
h one
Ġo thers
ri e
s es
ir d
Ġbear d
gra ph
n e
on g
Ġat te
Ġtan k
Ġs ub
Ġma ch
ck ey
Ġpie ce
d ing
Ġbo t
a k
j ect
y s
c or
i z
Ġpain ting
Ġm e
ie w
in es
w e
Ġst ep
Ġh ard
Ġcolo red
un ch
Ġbo x
i les
Ġshop ping
Ġpa per
Ġbr id
ear s
Ġse veral
Ġwh eel
Ġe le
c a
Ġt r
Ġphoto graph
s p
Ġtri ck
Ġp ull
Ġabo ve
Ġf ull
Ġp l
Ġto dd
Ġst one
Ġuniform s
a ble
Ġenjo ying
Ġle a
Ġev ent
f ive
Ġman y
Ġsnow y
Ġg i
Ġhang ing
d e
Ġwork er
Ġt ur
y m
Ġc oun
Ġdrin king
Ġmet al
on s
Ġread y
Ġp ra
Ġf il
Ġdo or
child ren
Ġe y
Ġb re
Ġa mer
nd s
n a
Ġho use
Ġsho es
Ġpo in
ric an
v ed
Ġsleep ing
ro om
st ic
Ġaf ter
is ts
ch ing
Ġta kes
man y
Ġa way
an k
Ġon to
Ġsh a
b r
Ġsnow board
Ġd ra
Ġr ight
at es
el ling
Ġli ke
Ġtodd ler
Ġgather ed
Ġpo le
Ġsp ea
Ġgo ing
Ġla p
Ġguy s
Ġp hone
Ġbrid ge
Ġra in
Ġwa ve
Ġn umb
Ġrock s
Ġle ap
Ġte en
an e
Ġsho u
Ġdan ce
Ġsm iles
i gh
Ġf am
on es
Ġv iew
Ġbo th
Ġsk y
i um
l ic
Ġro pe
ul t
Ġadul ts
b ble
Ġle aning
Ġstep s
Ġcow boy
Ġlo t
em ent
w ing
ar f
Ġflow ers
Ġamer ican
Ġcon c
Ġsub way
Ġpo se
Ġg ym
Ġcomp ut
Ġcrowd ed
io us
gg ing
Ġf ountain
Ġwh at
Ġb et
Ġle ft
Ġatte mp
Ġaf rican
Ġf our
Ġc lass
il l
k in
Ġg ear
p s
Ġc ur
Ġprep aring
Ġf rie
at s
o t
Ġsk irt
Ġv ol
Ġa p
ers ey
h air
t y
ar y
Ġst ud
Ġj ersey
Ġha ve
Ġfla g
Ġw in
Ġfam ily
Ġs qu
Ġdis pla
Ġw et
Ġsun ny
Ġwhi ch
i er
Ġho ckey
Ġcostum e
Ġf o
Ġfish ing
we en
Ġhi t
Ġra cing
Ġbet ween
s el
Ġp ub
Ġst op
Ġb ea
Ġcar ri
Ġc ra
Ġd ist
Ġo pp
im e
Ġcon vers
it ing
Ġbal lo
Ġma ke
Ġpra ct
n ed
Ġpol ice
Ġw r
ff it
g irl
Ġnumb er
en ing
Ġprep are
Ġg lass
Ġchair s
Ġe qu
Ġgra ffit
Ġlaugh ing
st er
Ġmach ine
Ġpub lic
Ġset ting
Ġb ut
Ġh ome
Ġfr is
Ġcor ner
Ġfris b
Ġm atch
Ġgo ld
Ġfore st
Ġshirt less
ing s
Ġg ri
Ġb ed
Ġinstrum ents
Ġvol ley
Ġsweat shirt
s uit
Ġc ig
Ġpla id
Ġdr ink
le t
Ġcou ch
hi cle
Ġho od
Ġbot tle
Ġvolley ball
b or
ut i
ent le
Ġve hicle
Ġfrisb ee
i ence
ro ll
at t
Ġstair s
Ġtra il
Ġs il
Ġba gs
Ġra il
c on
Ġt all
Ġapp ears
ycl ist
Ġche ck
re te
Ġpla stic
Ġre f
Ġa ud
Ġb low
nd ing
w or
ar t
Ġ ed
Ġg lo
Ġra mp
b e
Ġs elling
Ġconc rete
Ġl ist
Ġk is
Ġgraffit i
at er
ag ed
uti ful
Ġst at
ct ure
g et
Ġc up
Ġro o
Ġg entle
Ġst ra
Ġadul t
Ġse ated
Ġsome one
Ġsc arf
Ġequ ip
et y
all y
Ġmid air
b er
sh ing
Ġequip ment
Ġoff ic
Ġb ird
Ġcou rt
Ġp at
Ġco oking
ent er
are t
Ġcomput er
ic al
Ġsc en
Ġwood s
Ġdo es
Ġta ke
Ġcig aret
d ies
Ġsl ide
Ġp utting
Ġob ject
em s
Ġflow er
ar m
Ġbea utiful
Ġp ad
Ġed ge
lo o
Ġst ru
ch ool
Ġfr uit
Ġpush ing
Ġwor ks
Ġgri ll
Ġmountain s
ct or
Ġn et
Ġboo ts
Ġsh ore
Ġsp or
Ġpicture s
op e
Ġnear by
Ġdist ance
u g
u ff
Ġth ere
e ep
Ġs er
Ġshor t
Ġthrow ing
Ġele ct
t op
wom en
o ut
Ġj ust
Ġap ron
h ead
Ġst roll
ch es
as ian
Ġh ors
Ġpo ses
ph ones
Ġwh ere
Ġre ach
Ġbi kes
Ġsho vel
in ed
Ġb at
Ġg ar
Ġch as
Ġbuilding s
l ittle
Ġrid er
Ġwin ter
Ġan im
pp ing
Ġperform s
Ġey es
Ġcigaret te
i ff
Ġp ick
Ġplay ground
att oo
Ġst ation
Ġcross ing
Ġaud ience
Ġf all
Ġla dies
Ġbu cket
Ġpull ing
Ġkn eel
Ġe mp
er y
Ġt attoo
Ġskateboard er
Ġinstrum ent
Ġla wn
o s
in s
Ġpre s
Ġsp la
Ġnew sp
Ġnewsp ap
Ġs chool
Ġsm oking
Ġra is
Ġstat ue
Ġhors es
es ts
Ġpain ted
Ġlea ves
Ġpract ic
pp ed
gg les
Ġmusic ian
Ġpart y
Ġco l
Ġv ar
Ġsa f
id s
Ġf un
up p
Ġrock y
Ġpar ade
it e
Ġdri ving
in ing
es e
Ġsl id
r ing
Ġcon cer
f la
Ġy ard
Ġcle aning
d u
v en
Ġfil led
Ġl ying
as h
Ġdispla y
a il
Ġgi ving
Ġcre am
ad ing
Ġm ud
Ġc utting
Ġbe er
Ġstru cture
Ġsaf ety
Ġbl ank
Ġve get
Ġfe w
Ġve nd
Ġroo f
in ess
Ġbu bble
Ġma kes
Ġg r
Ġgo al
re st
Ġfor m
a z
v y
le e
Ġmar t
Ġconcer t
lo oking
Ġl and
Ġbu ll
Ġsm ile
Ġha pp
Ġw e
Ġc la
u ght
Ġpla t
Ġv i
Ġglo ves
Ġre la
Ġche er
Ġ ear
Ġdo ck
Ġcarri es
Ġblank et
Ġre s
ke y
Ġcar s
Ġne ck
iv al
g roup
Ġgentle man
Ġpain t
i ke
Ġd ire
Ġfrie nds
Ġb an
Ġshow ing
Ġshou lder
Ġbre ak
at ors
ct ive
Ġcon t
Ġblond hair
de o
g ing
Ġc ir
Ġbus iness
Ġread s
Ġs ea
Ġm em
Ġjacket s
Ġmart ial
Ġpo t
Ġroll er
Ġdrum s
Ġm ult
c ting
s er
Ġm il
Ġd ig
Ġla dd
Ġra iling
Ġnewspap er
Ġsuit s
i f
Ġc e
ch ed
Ġcoun ter
Ġfl ip
Ġdrin ks
Ġveget able
Ġho t
Ġcostum es
Ġbow l
b an
c u
Ġam ong
Ġma sk
m o
u gg
Ġv ests
Ġb unch
Ġro deo
Ġpark ed
iv id
Ġbow ling
et te
Ġgo ggles
Ġspor ts
Ġclo se
Ġfa cing
Ġpoin ting
Ġf ix
loo kers
s o
Ġw rest
Ġdress es
Ġde cor
Ġh ar
Ġba thing
some one
Ġprepare s
Ġpractic ing
Ġart s
a th
Ġmo ther
Ġtal ks
s et
Ġfe et
Ġdi ff
Ġal ley
Ġin ter
Ġba re
ur al
u ck
Ġm on
Ġteam s
Ġlist ening
Ġt ent
Ġy o
Ġsp ect
c ts
Ġcl iff
Ġfl ying
f ore
Ġw ed
er ent
Ġk ay
Ġswing ing
Ġelect ric
p ed
Ġmiddle aged
Ġsnowboard er
Ġbi ker
Ġfla gs
i ge
t ry
Ġ qu
Ġp ut
Ġsurf er
Ġscen e
Ġt y
Ġli gh
Ġladd er
o k
p erson
Ġp ile
Ġpar king
Ġdiff erent
Ġin t
Ġtr un
Ġrela x
Ġco ff
Ġdes k
Ġvend or
c ed
n ic
is e
Ġf ol
Ġbi kin
Ġwa ves
n s
Ġg ro
Ġon lookers
Ġsurf board
Ġwed ding
f oot
Ġst aring
lo red
Ġcoff ee
b b
Ġ im
Ġb ra
ver t
Ġc hi
Ġt ime
d er
Ġco ll
Ġro w
Ġpro du
Ġspea king
Ġt ub
Ġbe fore
ycl ists
Ġlap top
Ġl it
Ġyoung er
Ġt alk
Ġle ather
ivid u
Ġre p
Ġa th
Ġli fe
Ġskateboard ing
Ġt ie
Ġle ans
m b
Ġc ut
Ġle g
Ġle gs
Ġfore ground
Ġconvers ation
Ġsil ver
Ġvi ol
m e
r in
Ġs ort
Ġblo ck
Ġkick ing
Ġatt ire
Ġemp ty
i a
ar s
Ġf ing
en s
it ary
y ard
c ers
Ġpur se
Ġs led
ul p
Ġob ser
Ġp itch
Ġc ement
r ist
Ġs ay
el y
Ġsp ra
Ġs ame
Ġind ividu
Ġspect ators
Ġp ed
Ġto w
el s
Ġover looking
Ġit ems
Ġsc reen
Ġsho t
Ġind ian
Ġleap s
Ġex am
Ġvar ious
Ġsp e
Ġcompet ition
g er
Ġc al
Ġg un
Ġclimb s
s ed
Ġc ard
Ġf ur
ea th
ca se
Ġwr iting
ur se
Ġg ard
Ġto u
Ġsc ulp
ess ion
Ġno t
Ġle d
Ġd in
Ġth is
Ġpla ce
Ġsm o
Ġoutfit s
Ġattemp ting
Ġanim al
Ġkneel ing
Ġw ay
i ed
Ġc r
Ġl ined
Ġair p
Ġget s
Ġme al
al low
Ġlo c
Ġtable s
Ġsign s
Ġsh ad
Ġbicycle s
Ġski er
a ce
s ix
t on
Ġg ood
Ġballo on
Ġwear s
Ġsw eep
Ġstud ents
Ġviol in
ur ban
Ġmusic al
l f
Ġm ed
Ġc as
Ġch rist
igh ting
g u
Ġin do
Ġc and
Ġdark haired
Ġtri es
Ġbikin i
k en
Ġc at
Ġstreet s
Ġgo lf
est ri
Ġstroll er
Ġchas ing
Ġgro cer
m as
on y
Ġsit e
ic ip
Ġbeard ed
cor d
ld ers
ic o
o us
ro wn
Ġh ea
ines e
Ġt ire
Ġbr ide
Ġgar b
Ġplat form
Ġvegetable s
ar ate
Ġsing s
Ġsurf ing
Ġb ur
er man
ff ic
Ġhelmet s
Ġkis sing
Ġsay s
Ġf ighting
Ġbal an
Ġgather ing
Ġart ist
Ġb el
Ġin cl
Ġcoun try
a ff
b s
Ġw ra
Ġh am
Ġba th
Ġpro te
Ġen g
Ġbal d
n ess
Ġs hi
le br
Ġto ol
Ġsun set
n el
Ġt ee
Ġcon tain
ap e
Ġbr ush
n ers
Ġm eat
Ġfa ces
Ġclo wn
Ġblow ing
Ġce lebr
b and
un ette
oo ter
Ġle ash
iz ed
f ull
re ad
Ġm ir
Ġto ur
Ġv ide
Ġwalk way
Ġchrist mas
Ġ enter
Ġg re
al le
Ġso ld
Ġad vert
Ġca ke
Ġmil itary
Ġst ar
Ġus es
Ġclass room
Ġballo ons
full y
o sing
s m
les c
Ġcom ing
Ġalo ne
Ġres ting
Ġtrun ks
p ers
Ġtra cks
Ġsc ooter
Ġsand y
Ġteen ag
Ġgard en
Ġled ge
o ld
Ġ ea
Ġc rou
Ġpo st
ach ed
Ġdi ving
Ġgym na
Ġmir ro
er t
Ġt ro
Ġho op
Ġv is
Ġtra ffic
con struction
ath on
Ġadvert is
Ġp ier
Ġstre am
Ġbubble s
d ition
k i
Ġw ea
Ġwood ed
Ġhu ge
Ġco urse
Ġfol low
v ice
Ġswing s
Ġshow s
Ġs on
Ġhi king
Ġpro ject
Ġca fe
Ġex p
Ġcompet ing
Ġst o
Ġch inese
Ġtra sh
Ġpres ent
Ġdire ction
dition al
Ġt each
Ġwa ving
Ġcan o
Ġsqu are
Ġligh ts
s lee
u te
er ed
Ġr ing
Ġma les
Ġhel ping
Ġpart icip
Ġstra w
Ġf est
Ġpla te
Ġski ing
Ġref le
g o
z a
Ġto wn
Ġboo th
Ġpro t
Ġ urban
Ġhead phones
Ġlong slee
Ġpass ing
Ġoffic er
Ġcoll ar
k ids
Ġp e
Ġstre t
Ġp upp
do g
Ġmirro r
el f
Ġch ain
Ġcle ar
Ġopp osing
Ġslid ing
Ġcir cle
t ion
Ġd a
ch air
ud dle
Ġsand als
Ġfa ther
Ġhe ld
Ġmicro sc
ust om
Ġbright ly
Ġteen age
Ġty pe
Ġst ad
Ġn at
Ġlo w
Ġbr unette
b a
Ġp ea
Ġm ade
un g
ent al
Ġch ur
Ġtra ditional
Ġop er
Ġleap ing
Ġmult ico
Ġsculp ture
Ġstad ium
Ġa ss
Ġs lo
Ġf ight
Ġr ug
Ġk arate
Ġmusician s
t ail
Ġp rin
Ġwat ers
Ġmar athon
b ers
Ġt un
Ġst uff
Ġla b
Ġbare foot
Ġsh allow
Ġsk ating
Ġincl ud
Ġta ck
Ġperform ance
Ġwait s
Ġdoor way
Ġpa ck
Ġche f
Ġchur ch
Ġpad d
Ġp ul
Ġma g
Ġse en
Ġvide o
b lack
t om
Ġspla sh
a les
w h
Ġk ha
Ġshou lders
Ġs us
Ġh al
Ġho le
o u
r al
Ġwa shing
Ġse at
Ġpro f
Ġtoy s
Ġenjo y
Ġtur n
Ġrep air
Ġf air
Ġcoat s
Ġcol le
Ġfix ing
l ine
Ġ z
Ġh all
Ġst un
Ġball s
Ġst r
all s
Ġn a
Ġup side
Ġte lesc
Ġphotograph er
Ġdig ging
Ġf ive
Ġoff ice
Ġse e
Ġgu ard
Ġs ell
Ġpo nd
w hi
Ġf en
et s
Ġwindow s
Ġstick s
Ġbot tom
le ad
le ep
Ġg ian
Ġtra mp
Ġdirt y
Ġatt ached
Ġhu gging
a cle
Ġbe low
Ġac cord
Ġhapp y
cu ss
Ġaccord ion
Ġk ind
Ġboo ks
Ġde ck
Ġcano e
c y
Ġv a
ol ine
Ġtr ans
wor k
s pe
z z
Ġ i
Ġth ird
Ġd ish
Ġh ur
Ġe at
Ġumbrella s
Ġdes ert
Ġmake up
l ight
Ġthrow s
Ġmultico lored
Ġw ell
Ġst are
Ġla und
Ġbe ige
i ent
Ġas leep
Ġle ad
Ġmo ving
Ġtramp oline
f ts
Ġo ri
Ġno se
Ġmem bers
Ġgrocer y
Ġgian t
Ġreach ing
alle n
Ġmicrosc ope
Ġ round
Ġc rying
le te
Ġperform er
Ġswim suit
Ġdra wing
Ġwet suit
Ġc ustom
Ġt er
nd ed
Ġho w
Ġsc aff
ip e
Ġcatch ing
Ġfrie nd
er ing
Ġsh oo
Ġpa ir
Ġrun ner
Ġde ep
b ack
Ġ es
Ġp an
Ġco ok
Ġla ys
Ġhim sel
Ġrelax ing
Ġdin ner
Ġhimsel f
Ġwater f
Ġprodu ce
Ġtelesc ope
ro ad
Ġtri cks
Ġjo gging
Ġhood ie
Ġin fla
Ġdr y
Ġath let
in ish
Ġf ra
Ġv an
ward s
b la
q ue
Ġm at
ck ing
st re
Ġe mb
n eath
u al
y le
Ġt w
or ch
Ġred hair
Ġunder neath
Ġattemp ts
Ġsweep ing
l ers
p es
st acle
Ġhead s
ag es
Ġob stacle
Ġcatch es
Ġm ust
Ġclo sed
Ġdis cuss
Ġmatch ing
Ġsus pe
f ight
Ġin f
Ġc enter
ar row
Ġst e
Ġat op
Ġe nd
Ġgold en
estri ans
Ġpic nic
Ġt u
Ġunder w
Ġsa x
sc ape
Ġfall ing
t en
Ġa ct
Ġw ine
at or
Ġsle e
Ġey e
Ġtee th
Ġstuff ed
Ġpul led
a ired
c lo
Ġc yclist
Ġd on
Ġra cket
Ġdan cers
Ġpl ants
Ġoffic ers
ught er
Ġhar ness
Ġspe ed
Ġhea vy
Ġfest ival
Ġt ong
ar ks
Ġf allen
Ġde vice
Ġpush es
Ġroller bla
sm all
c om
c ross
Ġd em
id es
st and
ul ar
Ġsing er
Ġcle an
Ġspra y
d s
th ese
Ġm ix
Ġst ring
Ġch o
Ġbr an
Ġapp ear
Ġindividu als
Ġkha ki
ou fla
b ly
Ġ key
Ġd un
Ġf an
Ġre t
Ġcam oufla
Ġgo es
Ġspla shing
Ġmud dy
Ġdecor ated
i ble
Ġp in
Ġm om
it al
or k
Ġmo st
Ġtra vel
Ġhu la
Ġinclud ing
Ġm op
Ġc ri
Ġcan e
Ġal so
Ġhal f
l ane
m ed
o lder
Ġg room
Ġd en
at ting
Ġmo ve
Ġbal con
Ġprof ession
Ġori ental
re s
Ġco ld
Ġe ats
Ġdan ces
Ġshad ow
Ġta ken
Ġca st
Ġcover ing
Ġcur ly
Ġs um
Ġwhi l
Ġcar n
Ġapp ro
i ers
in o
Ġm in
ro nt
al m
Ġje an
Ġcross walk
Ġmar ching
Ġwhil st
Ġf re
Ġf ig
Ġbic yclist
Ġcamoufla ge
u c
Ġ ent
Ġp ort
Ġback yard
Ġra c
Ġkn it
Ġstun t
Ġtong ue
g ers
Ġm u
Ġlo ne
Ġpo ss
Ġblo use
Ġli ft
Ġboat s
Ġex c
Ġband an
Ġme et
Ġpoin ts
Ġspea ks
Ġkay a
Ġfing er
Ġindo or
Ġwra pped
Ġda ughter
Ġcarn ival
Ġwi de
Ġlo g
ow er
Ġcon f
Ġblond haired
Ġcur b
Ġsax op
a w
a ct
l s
t able
id ent
Ġte le
lead ers
Ġkey board
f ting
g on
Ġfl ies
Ġkick s
Ġhood ed
Ġtun nel
Ġw arm
Ġm ural
ve ment
Ġpo uring
Ġbus h
Ġwheel chair
Ġpick ing
Ġden im
e es
ic s
Ġr ub
Ġro be
Ġhel p
Ġfem ales
Ġgi ves
Ġcheck ing
in ning
am er
Ġpo lo
Ġopen ing
Ġrail road
Ġairp lane
a st
Ġp ian
Ġst ack
Ġdo ll
ip le
Ġj ugg
Ġn ap
Ġn ice
Ġpa vement
Ġch est
Ġham mer
Ġenter tain
Ġbalcon y
c ut
c us
Ġs upp
Ġf inish
Ġho se
Ġbe ver
Ġsp ot
Ġpass es
Ġsleep s
pla ce
igh ts
Ġhit ting
girl s
wor kers
Ġslid es
Ġp et
ent ly
Ġrun ners
Ġguitar s
Ġbar be
Ġcolor s
Ġkay ak
Ġbandan na
es ting
ers k
Ġroll ing
Ġpresent ation
o wn
Ġm ess
it s
Ġst ool
Ġpa ved
Ġsurf ace
Ġinf ant
Ġb eam
Ġp ony
Ġso ft
Ġad j
gu y
Ġgymna st
g a
op s
Ġover alls
Ġclimb er
Ġjumps uit
Ġdri ves
Ġtou ching
Ġprote ctive
Ġna vy
Ġshoo ting
Ġfig ure
Ġpian o
Ġ ke
Ġli ving
qu et
Ġmotor b
Ġmotorcycle s
Ġroll ersk
Ġrais ed
Ġbalan cing
b lo
in a
Ġin spe
nd er
il t
Ġcar p
Ġse ems
Ġsho e
Ġref er
Ġlaund ry
Ġb m
Ġp ig
Ġon ly
Ġkn ee
Ġwrest ling
b ric
f ire
w a
kin ned
u dy
w k
Ġs im
Ġbo u
Ġsp ort
Ġfa bric
Ġland scape
ugg age
Ġslo pe
Ġinfla table
er c
Ġg az
Ġd ust
it ed
Ġl uggage
Ġsk is
Ġput s
e ction
o lding
Ġp uddle
Ġm er
il low
Ġpo s
Ġpo les
Ġse wing
Ġwall s
Ġswim s
Ġloc al
Ġrug by
whi te
Ġwaterf all
d ress
Ġf arm
Ġh ear
la dy
il la
ly mp
Ġneck la
s hi
Ġ rou
Ġp en
Ġg ate
it or
on str
Ġpa pers
Ġwa sh
Ġenjo ys
Ġam us
Ġim age
Ġmag az
Ġappro ach
ir st
Ġbo un
ver ed
gg y
Ġflo ating
ust ic
Ġpull s
Ġpea ce
Ġth o
Ġro b
Ġha y
Ġmo d
Ġdan cer
Ġpain ts
Ġopp on
Ġopp os
Ġbut ton
art ment
Ġscaff olding
Ġrefer ee
c ial
j am
w s
Ġp ipe
ent ion
ap ed
Ġcl ub
Ġdes ign
Ġpass en
Ġcheck ered
Ġgood s
Ġemb ra
Ġprofession al
Ġf ans
Ġh an
ed s
Ġco nd
Ġpa jam
Ġtra ctor
ak ed
Ġsha ving
Ġgr ind
Ġgoal ie
Ġban ner
Ġgarb age
Ġteenag ers
p ort
Ġc one
Ġy ork
Ġteam m
Ġkis s
Ġreach es
Ġdem onstr
a se
b ow
Ġf ar
Ġwith out
Ġre ce
Ġco bble
Ġex erc
Ġstair case
Ġshi p
c ro
Ġs ale
Ġbe g
Ġsw or
Ġflo ral
Ġsmo ke
Ġsaxop hone
Ġbm x
e f
Ġo wn
Ġra ft
Ġsp r
Ġli es
ca la
Ġbel t
Ġes cala
Ġpos ition
i ther
Ġto ss
Ġbe nding
ant a
ach e
arks kinned
Ġjugg ling
p a
y ho
Ġo lymp
Ġst eep
Ġlo n
Ġmo ves
ap an
Ġpl ane
Ġexam ining
Ġlongslee ved
Ġhan gs
g es
h ere
Ġth rown
ra ck
Ġred head
Ġe ither
Ġguitar ist
Ġthem sel
Ġshe et
Ġsa il
Ġdri ver
Ġconvers ing
Ġpat ter
Ġfun ny
Ġstare s
Ġoppos ite
Ġthemsel ves
Ġp illow
Ġare na
Ġl unch
Ġcre w
Ġbird s
blo nd
d ium
Ġ ears
Ġp alm
Ġch alk
Ġrid ers
Ġsp o
Ġpl ant
Ġsum mer
Ġfre sh
w i
ir ts
Ġtr ump
Ġshovel ing
Ġpitch er
Ġprot est
i led
m a
u es
ro p
Ġh ers
id ing
Ġpo dium
Ġfa st
ip s
Ġapp l
Ġtub e
Ġpupp y
Ġhi ker
Ġsh ade
Ġbi king
Ġclo udy
Ġfire fight
Ġbox es
Ġbre ad
Ġsold ier
l and
t ime
v is
Ġb ent
Ġch ar
Ġarm y
Ġri bb
Ġjersey s
Ġwr it
Ġser ving
Ġped estrians
j e
Ġa ut
Ġb ill
Ġt rip
Ġg l
Ġj apan
one y
Ġje w
Ġflo at
Ġsha king
Ġfo cus
Ġfing ers
Ġcand y
Ġhur dle
Ġmust ache
Ġrac et
Ġrob es
Ġspr ink
yho und
p an
in ery
Ġac o
Ġsurround ing
Ġpol k
Ġanim als
Ġform al
Ġtow el
Ġunderw ater
Ġslee ve
Ġpajam as
Ġracet rack
Ġs up
Ġp orch
Ġc er
Ġd el
Ġd arkskinned
Ġj u
Ġle t
Ġsn ack
Ġblo cks
Ġdrum mer
Ġcontain er
Ġea ster
Ġaco ustic
b ile
d ay
f ront
m ers
ro l
Ġlo ts
gh aired
bo at
Ġbu cking
Ġne on
Ġbro om
Ġclo ud
Ġca ught
Ġfore ign
Ġmach inery
Ġ el
Ġm oney
Ġl ane
Ġla y
Ġch op
Ġcon es
Ġwa s
Ġsho wn
Ġshe ep
Ġbottle s
Ġescala tor
Ġhers elf
Ġg es
lo r
et er
Ġwa gon
Ġhe els
Ġus e
Ġtshirt s
Ġpract ice
Ġchas es
Ġsuspe nded
Ġges ture
a f
e um
f a
i pping
in y
Ġth umb
hi ll
us es
Ġor der
Ġhead band
Ġhair cut
Ġli qu
Ġstick ing
Ġmarket place
co vered
Ġpie ces
Ġbackpack s
Ġtattoo s
uc asian
Ġamus ement
c ue
Ġp uck
Ġst ri
ers ection
Ġback wards
Ġsn ea
ter ed
Ġcam p
Ġmus eum
Ġdri ve
Ġyo uth
Ġint ersection
Ġathlet ic
Ġmotorb ike
Ġcarp et
Ġrou t
Ġs ix
Ġc are
Ġred haired
Ġbrown haired
sp ital
Ġobser ving
Ġprin t
Ġbarbe cue
Ġpony tail
b rown
Ġt ight
Ġd ep
Ġf irst
Ġst or
Ġst yle
Ġba ss
Ġse c
Ġhall way
Ġmod el
t ruck
Ġp iz
Ġt ry
on ed
Ġlo ad
Ġho spital
am p
to wn
Ġso cks
Ġfl ight
Ġlea f
Ġteach er
Ġpadd ling
Ġsoft ball
Ġtrump et
d an
z er
Ġs anta
Ġt ar
ro on
ri er
Ġma roon
ub a
ation s
Ġbar s
ha wk
Ġlaugh s
Ġrais ing
Ġhapp ily
Ġmem ber
Ġtool s
Ġvis ible
Ġfra me
je cts
Ġth ings
st one
Ġn arrow
Ġdri ll
Ġparticip ating
Ġmeet ing
Ġp ower
Ġf ly
Ġla mp
Ġsk irts
ho use
gg ed
Ġbox ing
Ġoppon ent
Ġlon ghaired
s ho
Ġp ige
Ġm all
Ġlo un
Ġpo ster
Ġtop s
Ġhead sc
Ġbench es
Ġrest s
Ġindividu al
Ġgre yhound
Ġnat ive
d es
Ġg as
at o
Ġpla za
Ġback s
Ġma s
Ġperform ers
Ġcom m
Ġset s
Ġjo ckey
bor ne
Ġflower ed
Ġgr and
Ġcelebr ating
v iew
ic ycle
Ġdown town
Ġmo und
Ġmo hawk
Ġhel ps
Ġpad dle
Ġkneel s
Ġchi ck
Ġath lete
Ġwea ther
Ġbever age
Ġneckla ce
Ġcer em
Ġsnea kers
Ġrout ine
m in
m ale
Ġp it
Ġp ump
Ġp unch
Ġm is
Ġta x
Ġor n
Ġsp ee
Ġsc uba
Ġair borne
Ġbic yclists
Ġpar ach
Ġswim mer
Ġca ucasian
Ġfire truck
Ġam id
Ġsnowboard ing
Ġcomput ers
Ġadvertis ement
Ġspee ch
c ent
c ular
Ġf ree
ch est
Ġle ading
ren ch
Ġhand stand
ho u
Ġcross es
Ġkn i
Ġfe ed
Ġcarri age
Ġpat io
Ġcheer leaders
Ġret rie
Ġexc ited
b oo
i bly
Ġa head
Ġw ar
Ġt ied
Ġwi re
se ven
ure d
Ġpre te
Ġcap s
Ġsqu atting
Ġairp ort
Ġfen ced
Ġtrans port
Ġcustom ers
h ood
t es
v ol
Ġb un
Ġc yclists
Ġe gg
Ġsp ace
Ġstrip es
Ġele ph
Ġhome less
Ġgrill ing
Ġrefle ctive
Ġsell s
cro wd
Ġjapan ese
c ess
Ġth in
to cross
Ġma in
Ġbar rel
Ġelect ron
Ġyo u
Ġteenag er
f lo
f em
Ġp op
Ġg a
Ġl ick
bo x
Ġbu ying
ter y
Ġte al
Ġoper ating
Ġbran ch
er by
Ġc ree
is ter
Ġto o
Ġhi kers
Ġr ink
Ġbe en
Ġgra vel
Ġne igh
Ġpre t
Ġbasket s
Ġcatch er
Ġcourt yard
Ġcobble stone
Ġb le
at ure
Ġbu l
Ġar c
Ġno te
Ġexp ress
Ġposs ibly
Ġke ep
Ġswor d
Ġredhead ed
g an
Ġg erman
Ġd im
us k
ri ed
Ġch ee
Ġfor ward
Ġboard walk
Ġsil hou
Ġgentle men
Ġpat ient
Ġwe lding
Ġcheer ing
Ġsmo kes
Ġindo ors
Ġbrush ing
Ġcolle ge
Ġmost ly
Ġmagaz ine
th nic
Ġb ir
Ġf ea
Ġco ach
Ġbl ur
il ar
il ity
Ġbal ance
Ġev ening
Ġfo ld
bor n
uff y
Ġent r
Ġneigh bor
p y
p tion
Ġs u
is s
Ġd read
ck ed
Ġdo ors
Ġout stre
Ġra cer
Ġbi kers
Ġsp inning
Ġsmall er
Ġcor n
Ġrain bow
Ġblow s
Ġeaster n
Ġpiz za
p ro
y c
Ġa ction
Ġb ank
Ġb iting
lo y
ra in
Ġma p
Ġsk in
Ġmo tocross
Ġtra y
ph er
board er
Ġar ch
Ġskateboard s
Ġstud ent
Ġrepair ing
Ġsim ilar
fem ale
Ġcar ving
Ġcar ry
Ġsp read
Ġit em
Ġgo wn
Ġli br
ip es
Ġcomp an
Ġbar ber
Ġmotorc yclist
Ġatt ention
Ġcompet e
Ġpl an
Ġfo lding
Ġpolice man
Ġlongslee ve
Ġjew el
Ġsleeve less
Ġneighbor hood
d a
Ġm ater
Ġd ump
Ġhi ts
Ġn aked
Ġco ol
Ġta g
ct ed
Ġv illa
Ġso fa
ee led
Ġca b
Ġob jects
Ġnew born
Ġspor ting
Ġgar age
Ġcol la
Ġcond u
Ġentr ance
d les
l arge
z e
Ġg am
is ting
al ing
Ġcross ed
Ġsa w
Ġjo b
Ġclose up
Ġcho ir
Ġcri cket
Ġpolk a
Ġmater ial
b al
c an
i ally
te l
Ġl ines
st ick
Ġro wing
Ġback d
Ġor chest
Ġsc ru
Ġbal ding
Ġkn ees
co lored
Ġdispla ying
Ġflip flo
Ġint ently
Ġcard s
Ġcr ane
Ġsto ve
Ġstr ange
s ur
Ġ rough
hi b
Ġsh aped
Ġse co
Ġmicro phones
Ġstud io
Ġrais es
Ġbath room
Ġsold iers
Ġsplash es
Ġlibr ary
t ub
t ched
la te
Ġst art
Ġsk ates
ren ts
Ġcon s
Ġli fting
Ġtur ned
Ġamong st
Ġconf er
Ġrub ber
Ġliqu id
Ġorchest ra
b l
h ap
Ġs ong
Ġh um
Ġbe an
Ġse em
Ġad m
Ġex hib
Ġphoto s
boy s
Ġwheel s
Ġgun s
Ġcard board
Ġgre at
Ġcrou ches
Ġbush es
Ġcree k
Ġ if
Ġc el
Ġt ents
ur ity
Ġco o
Ġsh oot
Ġsh aring
Ġe thnic
do gs
Ġsoc ial
Ġsing le
Ġbal let
Ġfruit s
Ġmult iple
Ġce iling
Ġgymna stic
Ġcast le
Ġsup er
Ġheadsc arf
Ġoutstre tched
g re
t i
Ġw ings
Ġp atch
Ġt v
ro pe
at ive
Ġr ange
Ġsh are
Ġbu nd
Ġhand ing
Ġun icycle
Ġshe pher
Ġstop s
Ġvehicle s
Ġbucket s
Ġform ation
Ġmed ical
Ġtack le
Ġribb on
Ġkni fe
Ġfeed ing
Ġbir th
Ġconfer ence
l it
o f
r is
v i
Ġs ink
Ġp ill
Ġt ric
Ġd u
Ġf eat
id ed
Ġre l
wn ing
Ġro pes
Ġe xt
Ġwatch ed
iv ely
Ġattemp t
Ġcont rol
amer ican
Ġtax i
Ġseco nd
c cer
um n
Ġfa shi
Ġtri m
Ġapp le
Ġphotograph s
Ġstop ped
so ccer
Ġeng ine
Ġdish es
Ġhear t
Ġpige ons
Ġtransport ation
Ġbirth day
Ġt ile
nd ers
st or
Ġj et
Ġe mer
Ġwa ist
Ġsur g
Ġsand wi
Ġstore front
Ġsl ight
Ġlea ving
sel y
Ġcup s
Ġstret ching
Ġmu zz
Ġbill board
Ġbackd rop
Ġs ides
Ġb er
ic a
Ġan ge
Ġn ail
ur s
Ġsk ater
Ġshorts lee
Ġde fe
Ġplat es
Ġdirection s
Ġcerem ony
boo k
Ġflipflo ps
Ġshepher d
Ġs la
Ġs ad
Ġw ading
Ġp ri
Ġd ining
Ġdo t
Ġre mo
ion s
Ġor gan
Ġsnow covered
Ġwa ke
Ġben eath
Ġca se
Ġbag p
Ġfall s
Ġemp loy
Ġmin i
Ġbou quet
Ġeleph ant
Ġjewel ry
e er
e ld
n o
u ally
Ġa qu
Ġin vol
lo cks
Ġj ung
iz on
ctor y
Ġcal led
Ġpatter ned
Ġdel i
Ġthumb s
yc ling
Ġjung le
i or
Ġd erby
ut s
Ġr ural
Ġsuit case
Ġex te
Ġphotograph ed
Ġbreak dan
Ġcut s
Ġbalan ces
Ġdun e
Ġchick en
Ġelectron ic
Ġvilla ge
c c
l ike
t ers
Ġa x
un k
Ġr u
Ġk it
Ġle ar
Ġball er
Ġuniform ed
Ġpur ch
Ġcomp le
Ġte ch
Ġshop s
Ġche cks
Ġmar ried
Ġart work
Ġap artment
Ġchain s
Ġkaya king
Ġtele phone
Ġsec urity
Ġpret ty
Ġdread locks
b at
g y
n as
z en
Ġs ack
Ġat v
Ġbu y
Ġhorse back
Ġhill side
bb ing
estri an
Ġteach ing
Ġter rain
Ġdiscuss ion
Ġtravel ing
Ġexerc ise
Ġga thers
l led
p ol
in t
Ġw o
Ġb ead
Ġt ug
Ġre g
Ġlo om
Ġdown hill
Ġsc ore
Ġtrain ing
Ġfish erman
Ġconvers e
Ġbut ter
Ġshovel s
Ġtow er
Ġcal m
Ġfan cy
Ġdim ly
Ġcolla red
Ġa wa
Ġp ress
Ġl an
Ġup on
Ġwor ld
Ġbar rier
Ġfla t
Ġtrail er
Ġstra ight
Ġobser ve
Ġfur n
Ġtro p
Ġdon key
u la
Ġ ic
Ġp h
en se
Ġst eel
Ġst ill
Ġre c
Ġba d
ig ious
Ġfa ctory
Ġpar as
Ġcomp lete
Ġte x
Ġatt ra
Ġatte nding
Ġafrican american
Ġfur ry
Ġlead s
Ġtu x
Ġpet ting
Ġpassen gers
Ġteamm ate
Ġappl ying
a ster
Ġb la
Ġt ea
Ġd uck
Ġwi ld
or ting
ir ing
Ġdo ctor
Ġn ame
Ġlo ading
il ts
Ġe very
Ġk ite
Ġmo re
Ġover head
Ġso da
Ġhor izon
Ġcle ans
Ġpart ially
Ġpot tery
cu um
Ġcas ual
Ġva cuum
Ġslight ly
b ag
m id
u zz
Ġf et
it ure
Ġst ir
Ġl ar
Ġho tel
ard s
Ġhand le
Ġsc out
Ġse ats
Ġli ve
Ġfl uffy
iv ers
Ġjo y
Ġsha ved
Ġcra fts
Ġtattoo ed
Ġcand les
Ġcrou ching
Ġadj ust
Ġgrind ing
Ġspo on
vis ion
Ġsprink ler
Ġcloud s
sur f
i ving
m at
Ġg e
Ġpa rents
Ġra ces
Ġmo bile
ian s
Ġgray haired
Ġtur ning
Ġcla y
Ġcal f
Ġhea v
stre et
Ġdiscuss ing
Ġrollerbla des
Ġble ach
k ed
m ade
n am
r un
w ar
Ġd usk
Ġh ad
Ġh uddle
it ors
lo n
wo od
us ting
Ġcar ts
Ġra p
Ġle ot
Ġbro ken
Ġcam ping
Ġfl ipping
Ġcra ft
Ġcont est
Ġwrest le
Ġqu ick
wh ere
Ġgam es
Ġcel lo
Ġrel igious
Ġfurn iture
l id
m ult
Ġs al
Ġs lack
il s
Ġe u
Ġch ess
Ġbro w
way s
Ġrain y
Ġnumb ers
Ġgym nas
Ġcla pping
Ġeng aged
Ġadvertis ing
Ġprot esting
Ġfen cing
Ġi ron
Ġcustom er
Ġact iv
Ġmix ing
Ġolymp ics
Ġtric ycle
Ġbleach ers
Ġgymnas ium
Ġp ee
Ġd ead
at ely
Ġsh el
Ġro d
Ġk ilt
Ġle an
Ġv en
Ġsnow sho
Ġcl ut
Ġban an
Ġinter a
Ġbel ly
Ġfollow s
Ġass em
Ġmer ch
Ġtho ugh
Ġchee k
Ġsandwi ch
d ed
g ed
i ety
Ġs em
Ġc ru
Ġf at
Ġpla cing
Ġn t
Ġla bor
Ġpa le
to ur
Ġmo tion
Ġse ction
Ġde c
co at
iz ing
Ġele v
br ush
Ġbat ter
Ġcla d
Ġtrun k
Ġtour ist
Ġfollow ing
Ġpadd les
Ġbran ches
Ġinspe cting
Ġpump kin
Ġgymnastic s
Ġslack s
p o
Ġc ome
ld o
oun t
um er
ri es
Ġbe nds
Ġch ase
Ġv ic
Ġsc re
Ġbri cks
Ġcolor ing
foot ball
Ġrow s
Ġexam ines
Ġstar ting
Ġtrash can
tail s
Ġwrit ten
Ġorn ate
Ġbul ldo
Ġcoo ks
k y
u rt
Ġin stru
Ġt ick
Ġthe ater
Ġd ro
Ġh ind
ut ing
Ġco vers
Ġcamer as
Ġhu g
Ġcre ating
Ġfil ling
Ġbre a
Ġyo ga
Ġtour ists
Ġchar act
Ġfold ed
Ġlar ger
m s
m us
Ġa im
Ġc all
la d
Ġst all
Ġta pe
Ġfa ke
Ġfl ute
co up
Ġhu gs
Ġcra w
Ġglo ve
Ġlist en
Ġspra ying
Ġwea ving
Ġrefle ction
Ġport ra
Ġtele vision
Ġgesture s
Ġamid st
Ġtrop ical
Ġtux ed
c ul
Ġ ident
er ry
Ġp ins
Ġc age
Ġst y
te en
Ġma ss
Ġbro n
Ġclo sely
Ġswim mers
Ġex per
Ġfore head
we ight
ill s
Ġkis ses
Ġlaptop s
Ġathlet es
Ġrollerbla ding
Ġfirefight ers
Ġcomm un
mult iple
b arrow
f rie
g le
v o
y o
Ġo dd
Ġb ino
Ġd one
Ġd ive
ch an
ic ally
Ġr ally
Ġho uses
Ġgra du
Ġch in
Ġcro wn
Ġmo v
Ġbri ef
Ġwh om
Ġfire men
Ġnight time
Ġwheel barrow
Ġpoin t
Ġlist ens
Ġscen ic
Ġvar iety
if ic
mo st
Ġgrocer ies
Ġmom ent
Ġmas ks
pol ice
l ies
Ġ ump
Ġa is
Ġs y
Ġin form
ar a
ar n
nd on
or n
Ġpla ced
Ġlo ndon
ble s
Ġsn iff
Ġcamer am
Ġfire man
Ġopen s
Ġview ing
Ġshore line
Ġcas ually
Ġtire s
Ġnat ure
Ġcare fully
Ġmis sing
Ġbean ie
b ur
c amer
e x
g en
g reen
m ark
Ġg all
is ing
Ġst om
lo ng
Ġco aster
um ent
Ġpo urs
Ġch atting
Ġjump ed
Ġmo der
Ġover loo
Ġag es
Ġcan v
Ġme chan
Ġwheel ie
Ġscen ery
Ġpractic es
Ġligh ting
Ġobser ves
Ġcrou ched
Ġpe ers
Ġrollersk ating
Ġtrip od
of war
Ġtug ofwar
Ġump ire
Ġgall ery
v il
Ġa er
Ġs id
Ġs ized
Ġb it
Ġc op
Ġt em
ar ves
Ġh ut
Ġst ones
Ġplay ed
Ġsh ar
Ġma y
Ġsp ar
Ġsurf s
co late
Ġdes ce
Ġpath way
Ġtur ns
Ġcir cular
Ġtou ches
Ġparticip ate
Ġpupp ies
Ġmess y
Ġpig tails
pa ss
Ġju ice
af rican
Ġtar get
Ġlick ing
Ġsilhou ette
Ġeu rope
Ġven ue
Ġais le
b ic
g ull
Ġp ir
Ġman e
Ġdo ugh
ic es
Ġgra bbing
ct ors
Ġpo or
Ġwor d
as es
Ġhead dress
Ġcoup les
Ġche wing
Ġsa ying
Ġspea k
Ġdispla ys
Ġnot es
wh eel
Ġcho colate
Ġmop ed
Ġapproach ing
Ġtoss ing
Ġparach ute
Ġrap ids
umer ous
e ight
Ġp ood
Ġt iny
lo t
ra il
st ud
ce p
Ġro lled
Ġgroup s
Ġle cture
Ġsp ark
Ġwa res
Ġcam el
Ġsun light
Ġli fts
Ġcom es
Ġar r
Ġmar ch
Ġind ust
Ġpres ents
Ġflip s
Ġbowl s
Ġcelebr ation
Ġadj usting
Ġpassen ger
Ġchalk board
Ġskin ny
Ġbutter f
Ġquick ly
cul ars
Ġbino culars
Ġsid el
c oun
d en
m on
Ġ ill
Ġo ven
Ġb ite
Ġt iled
Ġd j
Ġf it
it ies
Ġwi g
on al
Ġy arn
ut ion
Ġlo go
Ġta il
Ġwater me
ind er
Ġv al
Ġover weight
em en
Ġse p
Ġen vi
Ġhor n
ang ing
ang es
Ġnew ly
Ġal co
Ġvend ors
Ġexam ine
Ġhoop s
clo th
Ġshadow s
Ġsupp lies
Ġembra ce
Ġteamm ates
Ġstor y
Ġloun ge
Ġfea ther
Ġexhib it
Ġsnowsho es
c d
m other
v ar
v al
w l
in et
Ġo vers
Ġf le
Ġst ump
Ġre cord
Ġla ss
Ġpo cket
Ġma il
Ġcon gre
Ġje ep
Ġri f
ron ment
Ġal most
Ġtur ban
Ġcra y
Ġsea gull
Ġpot ato
Ġalley way
Ġtou ch
Ġshad es
Ġsweep s
whi le
cross e
Ġfirefight er
Ġaut umn
Ġvic tor
Ġcanv as
Ġenvi ronment
Ġcongre g
m es
x y
Ġ ut
Ġt ut
Ġt orch
Ġd ad
Ġwith in
Ġre cl
Ġpa y
Ġra cers
Ġsp id
ure s
Ġse ven
Ġmid st
Ġstrip e
Ġmouth s
Ġdes cent
ne qu
Ġsha kes
Ġdra wn
Ġsil ly
Ġland ing
Ġcont ra
Ġprodu cts
Ġmed ium
Ġexp lo
Ġembra cing
Ġexpress ion
Ġbagp ipes
Ġlear ning
Ġmov ie
Ġmoder n
Ġshar p
e lderly
m ents
n ow
Ġw el
Ġo cc
Ġc urt
hi ft
Ġt om
Ġt ig
ar ter
la bor
at a
Ġdo u
ch eer
ic emen
Ġfro zen
Ġwor ds
Ġra ck
ul ts
ore d
Ġli p
Ġac ro
Ġbr it
umb er
Ġen clo
Ġshow er
Ġhill s
Ġroll s
Ġatte nd
Ġmach ines
Ġme x
Ġtodd lers
Ġpad s
Ġmakes hift
Ġbra ce
ator y
Ġspot ted
Ġrollersk ates
Ġegg s
Ġarc ade
Ġcompan y
Ġchains aw
coup le
Ġstom ach
Ġval ley
i pp
n et
Ġm or
Ġm cd
Ġman nequ
op ter
ic opter
Ġl ink
Ġplay fully
Ġco t
Ġla crosse
Ġso ap
Ġcom for
qu o
Ġski ers
Ġconc ent
Ġcr ates
ba by
Ġprin ted
Ġunderw ear
com ing
Ġdust y
Ġbeg ins
Ġwake board
Ġballer ina
Ġleot ard
camer a
stud ents
Ġbutterf ly
Ġalco ho
Ġmcd onal
f am
h op
r id
s w
Ġ ing
Ġw and
Ġt rench
Ġd om
Ġf ed
Ġwi res
Ġwhi st
ic le
um in
Ġhis pan
ri al
im es
Ġup s
Ġbui ld
ru cks
Ġun us
sk ate
Ġwh eeled
Ġdi ves
Ġroo ft
Ġser ve
Ġdecor ative
Ġmon key
ped estrians
Ġswimsuit s
Ġsuspe nders
Ġtoo th
Ġnote book
stick s
Ġhum an
Ġadm iring
Ġintera cting
Ġscre am
Ġindust rial
Ġcurt ain
cheer leaders
quo ise
Ġhispan ic
b ies
th aired
re nt
Ġp ine
Ġc ute
Ġt ights
Ġh y
Ġhi ke
Ġr ice
Ġr ush
Ġba mb
Ġe labor
Ġbu ff
Ġbu ilt
Ġcam els
Ġoff camera
Ġper ched
Ġhead ed
Ġac c
Ġac com
Ġte xt
Ġde br
Ġboard s
Ġbox er
Ġgi ft
Ġtur quoise
Ġnewspap ers
Ġblanket s
Ġbra ss
Ġsto op
Ġtw irl
Ġboun cing
Ġown er
Ġolymp ic
Ġscru bs
tour ists
Ġdebr is
d r
h and
h am
i et
s now
y ed
at ers
ck er
lo ts
op es
Ġbo und
Ġhand rail
ation al
Ġcap ture
Ġcan ad
co t
Ġstair way
Ġpra ying
Ġdra g
Ġhar ves
Ġinter esting
Ġloc ated
Ġknit ting
Ġwrit es
hap py
Ġcameram an
coun try
var ious
Ġconcent r
Ġbamb oo
a ke
c hi
i kes
l ley
n ey
Ġb in
Ġg ive
Ġst ilts
or a
ch er
Ġn un
Ġk im
Ġcar go
Ġra d
Ġsc ra
Ġsc oot
Ġhel icopter
Ġmountain side
Ġapp are
Ġdi ver
Ġapron s
Ġwrest ler
Ġmon ument
Ġbrush es
Ġtro lley
Ġstret ches
ba se
Ġscaff old
Ġpin ata
Ġgaz es
Ġapproach es
Ġfar mer
Ġsail boat
Ġange l
Ġshortslee ved
Ġbead s
Ġbulldo zer
Ġportra it
gen cy
Ġrooft op
Ġscoot ers
b ank
k id
Ġc ans
Ġg est
and ise
Ġho ok
ad es
Ġsm oo
low ing
Ġch at
Ġch amp
ng th
Ġse le
Ġsur p
Ġad or
Ġmotor ized
Ġhigh way
Ġhigh chair
Ġsha ggy
Ġbat tle
Ġcol um
if ier
Ġhot dog
Ġinter view
Ġcand le
Ġbath tub
Ġtack led
Ġsupp ort
Ġdemonstr ation
Ġloun ging
Ġsu v
Ġpill ar
Ġdu cks
Ġmerch andise
Ġcontra ption
Ġtig er
Ġw ere
Ġm ower
Ġc ub
it ive
Ġwi fe
Ġpla ces
Ġr ick
Ġba ker
ea s
Ġblack haired
il led
Ġla unch
Ġch ina
Ġsn ap
Ġunder ground
Ġcap e
Ġfish es
Ġpol ish
iz e
Ġcur ve
Ġhome made
Ġmil k
Ġchi sel
Ġped estrian
Ġbur ning
Ġfollow ed
Ġfigure s
Ġprete nding
Ġsurg ery
Ġbreakdan cing
Ġax e
Ġdou ble
Ġacro bat
w ear
Ġs ear
Ġs und
Ġs ym
Ġm ow
Ġc it
Ġwi ll
Ġat m
Ġre ar
ers by
Ġla t
Ġbe long
Ġas ia
bo dy
Ġsc r
Ġen th
Ġche ese
Ġjo gs
Ġwr ist
Ġstra pped
Ġworks hop
Ġdisplay ed
Ġdire ct
Ġqu arter
Ġsled ding
Ġass ist
Ġlift ed
Ġentertain ing
wa i
Ġdemonstr ating
Ġdep artment
Ġload ed
Ġpunch ing
ris ed
Ġfashi on
Ġlan ter
Ġheav ily
mus ic
Ġbrief case
Ġtom ato
Ġaccom pan
base ball
c ar
g und
i lor
Ġm i
Ġc ycling
ro mat
is es
Ġf ind
Ġhi ding
Ġsh iny
ri ght
am ed
Ġla te
Ġmo use
Ġsnow ball
Ġsnow suit
Ġcon stru
Ġgo t
Ġcross country
Ġboard ing
Ġteen s
Ġbur gund
Ġcontain ing
Ġtour nam
Ġpost ers
Ġwaters ki
Ġsplash ed
Ġtu rt
fire fight
Ġplan ting
Ġext re
Ġinform ation
Ġmane u
Ġsidel ines
Ġlass o
Ġkim on
Ġburgund y
d ling
i ves
i ents
l ish
o c
z y
an nel
Ġp i
Ġt ired
en ting
or ted
Ġre cor
Ġl ime
Ġr ings
Ġj ud
Ġsh ining
Ġbe nd
Ġbi b
Ġcon te
Ġwa re
Ġsc ient
Ġgo at
Ġpro cess
Ġcolor fully
Ġag ed
Ġtre ad
Ġart ists
Ġcle aring
pla y
ious ly
ot ic
Ġstud ying
wor ks
Ġnet s
Ġser ies
Ġban jo
ens ive
Ġloc ation
gu ys
Ġcontain ers
Ġpack ed
Ġlaund romat
Ġslee ves
Ġstring ed
Ġmer ry
Ġber et
Ġscout s
Ġcot ton
Ġtournam ent
b by
h e
Ġin j
Ġin ner
Ġp y
Ġf rench
Ġst eam
st yle
ver ing
Ġpo ts
Ġby stand
Ġle gging
Ġjump er
Ġor anges
ig ning
Ġso uth
Ġshor thaired
Ġli ps
Ġmountain ous
Ġbar ric
Ġmar ble
Ġdis c
Ġkick box
Ġpol icemen
Ġsha wl
Ġstat ues
Ġbusiness man
Ġmon itor
Ġim ages
Ġenter ing
go round
Ġstret ched
Ġchef s
Ġste pping
Ġbever ages
Ġdrive way
Ġretrie ver
Ġcons isting
Ġmini ature
Ġadjust s
Ġlabor atory
Ġpir ate
Ġrif le
Ġelabor ate
b ed
b ling
Ġs at
Ġp ow
Ġm it
Ġd ivers
Ġh op
en ed
om s
rou s
Ġpla in
Ġre sc
Ġan g
Ġba y
Ġlo ve
Ġco ast
am a
Ġe m
Ġha wai
Ġgra b
Ġbro ther
Ġsp an
Ġhand ling
Ġsc o
Ġblo od
Ġfood s
Ġpro p
Ġve nding
Ġkn o
Ġcell phones
Ġkick ed
Ġatt ack
Ġam ount
Ġbrid es
Ġsky d
Ġser vice
Ġpick s
Ġwrest lers
Ġqu iet
Ġbottom s
Ġgaz ing
Ġfarm ers
Ġdesign s
Ġsnack s
Ġchop ping
Ġblur ry
Ġgradu ation
Ġaer ial
Ġmex ican
Ġgest uring
Ġcolum ns
Ġscr atch
Ġenth us
Ġmerry goround
Ġlegging s
l im
m ar
s te
Ġa do
Ġo l
Ġp r
Ġg oo
Ġst uck
Ġst ars
or ts
on ge
Ġto ile
Ġre le
Ġl ion
st ro
Ġmen u
Ġpa c
Ġsk ills
Ġside ways
Ġfa cial
Ġsc ience
Ġtable cloth
Ġde f
ag ing
Ġsa iling
Ġspea ker
Ġcowboy s
Ġsqu ats
Ġtack ling
Ġfra med
Ġwash es
Ġsocial izing
Ġsuper mark
Ġattra ctive
mid dle
Ġtuxed o
Ġident ical
Ġexper im
Ġbrit ish
Ġmor ning
Ġunus ual
Ġtooth brush
Ġbelong ings
Ġconte mp
Ġware house
c ra
c il
e en
k is
z ard
Ġ u
Ġ est
Ġa ge
Ġs ar
Ġs om
th o
Ġm ur
Ġm ead
Ġth an
nd o
at tered
lo ns
Ġba bies
Ġgra bs
Ġk io
Ġsome where
Ġra bb
Ġle vel
em ents
ho ckey
Ġso und
as ing
Ġun f
Ġun lo
Ġtop less
Ġwho se
Ġday time
Ġfl annel
Ġfire works
Ġsky line
Ġaud itor
Ġoffic ial
Ġdecor ations
Ġty pes
Ġprodu ct
Ġspe cial
Ġproject or
Ġoper ates
Ġrepair s
Ġna v
spe ct
Ġret ur
Ġrece ption
Ġstri ke
Ġcondu ctor
Ġinvol ving
run ners
Ġbron co
Ġcray ons
Ġmannequ in
Ġturt le
Ġsupermark et
Ġmead ow
Ġauditor ium
i pped
Ġm eas
Ġst ro
Ġhi stor
Ġan ti
Ġlo gs
Ġco ca
Ġsh ru
Ġher e
Ġch erry
Ġsp rin
Ġsc iss
Ġsc aling
Ġsun ba
Ġuni vers
Ġad dress
Ġex pla
Ġmar sh
Ġmark ed
Ġphotograph ers
Ġdra gging
bble s
Ġcra shing
Ġbed room
Ġstru gg
Ġhar bor
Ġbikin is
Ġguard s
Ġter min
Ġspot light
Ġpatter n
Ġlet ters
Ġtar p
Ġbund led
Ġfeat uring
Ġemploy ee
Ġbla zer
Ġsy n
fam ily
Ġcit iz
Ġbrides ma
Ġnav ig
b ing
s on
in er
Ġm ug
Ġth ick
Ġt rucks
Ġd et
Ġst ain
Ġst aff
es ter
op y
Ġy elling
te m
Ġr ust
Ġbl ind
Ġbe ers
Ġwater way
ie ce
Ġsk ull
Ġsp onge
Ġclo ck
Ġfa c
pp er
Ġasian s
shirt less
gg er
Ġflo ats
Ġus ed
sh aw
Ġtre at
Ġcow s
Ġcra sh
Ġdig s
Ġdig ital
Ġelectric al
Ġrelax es
Ġfol i
Ġblock ing
Ġcas ting
sm iling
Ġfest ive
Ġpe ering
Ġeye glasses
Ġgaz e
Ġmagaz ines
Ġgrind s
Ġlet ter
Ġel se
Ġdump ster
Ġactiv ity
Ġtem ple
Ġeurope an
Ġpood le
Ġill umin
Ġing red
Ġwhist le
Ġhy dr
Ġrick shaw
Ġhawai ian
Ġenthus ia
Ġkio sk
spect ators
b u
i ft
Ġa ra
Ġa vo
Ġs igning
re w
le ts
le nt
Ġf ellow
Ġh arm
and el
Ġj a
Ġn ur
Ġn urse
Ġsh ape
Ġta gs
Ġup ward
the y
Ġra z
Ġne ed
Ġsk ies
Ġhand bag
Ġsc arves
Ġse es
Ġhead ing
ell s
Ġwind surf
Ġshop pers
ag ne
Ġsa us
Ġcan al
Ġnew s
Ġpass ersby
Ġwheel er
Ġdra w
Ġfo am
Ġcheck ed
Ġhot dogs
Ġwra p
Ġvis iting
Ġadvertis ements
Ġsto ck
Ġbooth s
Ġprotest ers
Ġaut om
Ġcamp fire
Ġemer gency
Ġexte nded
Ġbrow sing
Ġcharact ers
Ġvictor y
Ġspid erman
skate boarder
Ġcanad ian
Ġrad io
Ġchamp agne
Ġwaterski ing
firefight ers
Ġbystand ers
Ġest a
Ġsciss ors
Ġunivers ity
Ġtermin al
Ġfoli age
Ġhydr ant
e lding
p ants
r ings
t ur
v ent
v ention
Ġs en
Ġm y
Ġm oun
Ġt imes
ar ium
ic ing
Ġy a
Ġre ally
te nder
Ġhi p
Ġl ining
Ġco con
Ġsh elf
il ies
Ġha ul
Ġpa uses
Ġup per
Ġfield s
ud e
ag ue
Ġstore s
Ġtrain s
Ġpush ed
Ġbox ers
ca ke
Ġdra ped
Ġnumber ed
Ġear rings
Ġcas ino
Ġz one
Ġfocus ed
Ġblur red
bl ue
bl ish
no on
Ġaqu arium
Ġbanan as
Ġinstru ctor
Ġoverloo ks
Ġsurp rised
Ġingred ients
Ġesta blish
c uit
k n
m ill
o ff
t ra
Ġ ip
hi te
Ġl imb
Ġwhite haired
Ġho lid
Ġro ses
ad ults
se at
Ġbe at
ress ed
im ate
ph y
est ed
Ġsweat ers
Ġsa ilor
Ġob sc
Ġcostum ed
Ġpass ed
Ġmet ro
Ġfil ming
Ġrain coat
uff s
Ġrais e
Ġear phones
uck ing
Ġcr ate
Ġbur ied
Ġham bur
Ġshi eld
Ġclown s
Ġcelebr ate
Ġnat ural
wh at
Ġtrans it
ten ance
clo se
Ġfinish ing
Ġinspe cts
Ġboun ce
Ġchop sticks
Ġemploy ees
Ġpurch ase
Ġtick et
Ġcommun ity
Ġtut u
Ġmcdonal d
Ġscream ing
Ġsym bo
Ġharm on
Ġholid ay
f ood
m art
p ain
t ie
Ġa wning
ing ing
Ġs orting
Ġin st
Ġg row
al t
rou d
el ing
Ġco ck
us ing
Ġas king
ll y
Ġpa ying
bo t
ind ian
Ġsp ons
ap ped
Ġpicture d
Ġcom mer
Ġar row
Ġpur ses
Ġte nding
Ġshe ets
Ġfla sh
Ġmotorc yclists
Ġcan n
Ġdes ks
Ġlight ed
Ġind ia
Ġpainting s
Ġhard wood
Ġpaper work
Ġpra y
Ġpoin ted
Ġafter noon
ot t
Ġprepare d
Ġcigaret tes
os aur
Ġdin osaur
Ġspray ed
Ġbarbe cu
Ġjumpsuit s
Ġrece iving
Ġarc hite
Ġsilhou et
Ġmuzz le
Ġstir ring
Ġsniff ing
Ġbuff et
Ġquarter back
Ġinj ured
Ġspan ish
Ġol ive
b i
b ear
c ow
t est
z ing
Ġ vert
Ġs ys
Ġo x
Ġb ump
Ġt en
op o
Ġl ush
st ore
Ġas ce
Ġup wards
Ġma j
Ġcro ps
Ġsp ring
Ġperson nel
ph o
Ġun happy
Ġflo ck
Ġmountain top
Ġmus lim
Ġbar tender
Ġde er
Ġtre el
Ġdri ven
Ġmark er
Ġflow ing
Ġcan y
Ġclass ic
Ġap art
Ġbut t
Ġpat ri
Ġser ves
Ġpres enting
ous ly
lead er
Ġdry er
que e
Ġspeed s
Ġcurly haired
Ġkaya ks
Ġfresh ly
Ġdrill ing
Ġic y
Ġtwirl ing
Ġdirect ly
Ġrecor ding
Ġinner tub
Ġmit t
Ġraz or
close up
Ġharmon ica
f ield
g ie
k et
r it
w ash
z es
Ġs ke
Ġp ipes
Ġt ying
Ġg al
Ġg ig
et ti
ut es
Ġan t
Ġe ight
Ġla id
to dd
Ġra king
Ġra fting
Ġbro ad
Ġperson s
ap ing
Ġper hap
Ġcl ar
Ġar ri
Ġwh en
Ġwait er
Ġca ution
Ġtri bal
Ġmar king
Ġfla ming
Ġphotograph ing
Ġdra ws
Ġgar ment
Ġint ense
Ġstun ts
Ġshoo ts
Ġport able
Ġposs ession
Ġbou lder
Ġbeg in
Ġyouth s
Ġfashi oned
Ġsurg ical
Ġfat ig
Ġbit es
Ġseagull s
Ġpi lot
Ġresc ue
Ġcontemp la
Ġestablish ment
kn own
Ġcommer cial
Ġcany on
Ġperhap s
b as
d ers
g ress
l ph
p it
Ġa mp
Ġb or
Ġp iles
Ġc y
Ġst ay
Ġwi lder
Ġdo lph
Ġre sp
Ġhi ps
st ers
Ġla st
Ġla be
ie val
Ġback seat
Ġfor k
Ġle ns
Ġsw e
Ġsn ake
Ġsp i
Ġso l
Ġso on
Ġwork out
ish ed
Ġac ting
Ġflo od
Ġus a
Ġclimb ers
Ġwait ress
Ġca f
Ġapp les
Ġcloth ed
Ġbook store
Ġcompet itive
Ġsub urban
Ġdra gon
Ġfo und
Ġstroll ers
Ġcheer leader
Ġcont ents
mo tor
so ld
Ġmon opo
Ġchi ps
Ġmed ieval
Ġprote ction
Ġkha kis
Ġhur dles
Ġclean er
Ġmu ch
Ġentertain s
Ġbeg inning
Ġpillow s
Ġspo ts
Ġribb ons
Ġel mo
Ġstri king
Ġdep ic
Ġbun ny
Ġmain tenance
Ġfea thers
pro test
stor m
Ġcomple ting
Ġhorizon t
Ġfet ch
Ġpee king
frie nds
Ġovers ized
Ġmail box
Ġalcoho l
Ġpac ifier
pho to
Ġwilder ness
Ġlabe led
Ġmonopo ly
a b
d ish
d uring
j ump
l ights
p en
v a
ing er
Ġp uzz
Ġm ing
le ading
Ġt ies
Ġg la
Ġf lee
Ġh unch
la p
Ġre m
st rip
Ġred dish
am i
Ġbe ca
Ġas ph
Ġsk aters
Ġsp lit
Ġsnow man
Ġcon vention
ap es
Ġgo ate
Ġun known
ud s
Ġbic ycling
Ġpro gress
Ġex iting
cl ub
Ġfla mes
Ġcan opy
Ġbow ler
Ġev en
Ġam az
Ġforest ed
Ġcig ar
Ġear ly
bb ling
Ġrow boat
Ġbel ts
Ġstret ch
Ġlow er
ung es
Ġbarefoot ed
Ġz ip
Ġrac quet
Ġwarm ly
Ġstack ed
Ġneckla ces
Ġpen cil
Ġswor ds
Ġju ggles
Ġgreyhound s
min ton
Ġpill ars
Ġawa iting
Ġaim ing
Ġspar ring
Ġkickbox ing
Ġtoile t
Ġanti que
Ġsys tem
protest ers
Ġbeca use
Ġasph alt
a bo
c yclists
f ather
v ices
w al
w ed
Ġa b
Ġs am
Ġs ling
Ġs ash
Ġc ul
Ġt ips
Ġd est
Ġf ist
Ġf rying
Ġh ung
en ga
Ġst ate
Ġdo ctors
ch ron
ic ans
Ġj enga
Ġn ike
Ġn amed
us hi
us ed
Ġv int
Ġsp arks
Ġrock ing
Ġuni que
Ġhe al
Ġpro pped
Ġca ve
Ġsub st
Ġme ga
Ġpl ank
Ġlea st
Ġamer ica
Ġcheck ers
Ġpick up
Ġveget ation
az z
Ġland s
Ġcla us
Ġcheer leading
Ġmon itors
Ġgolf er
Ġstraw ber
Ġpack age
Ġstr um
Ġter rier
Ġcook ie
Ġcri es
Ġexc it
Ġdoll s
Ġexerc ising
Ġtoss es
wi th
eter ia
Ġcondu cting
Ġshortslee ve
Ġaqu a
Ġbad minton
Ġtex ting
Ġhandle b
Ġclut tered
Ġelev ator
Ġmechan ical
Ġwaterme lon
Ġsep arate
Ġfed ora
Ġacc ident
Ġappare nt
Ġsmoo th
Ġsco op
Ġado lesc
middle aged
Ġexperim ent
cra ft
Ġautom o
Ġtreel ined
todd ler
Ġcaf eteria
f ast
p iece
s ting
s ure
w ell
Ġs low
Ġb on
Ġp roud
Ġc ent
Ġc ash
Ġt est
Ġf i
Ġh allow
Ġst ance
or ing
ra ce
Ġl in
Ġsit ing
Ġn or
Ġn umerous
Ġpa ws
Ġta sk
Ġwater ing
Ġbu st
Ġup hill
Ġle ague
Ġgreen ery
Ġsc ales
Ġgu ide
Ġboo gie
Ġwho le
Ġca th
Ġlook ed
Ġsurf ers
Ġri ot
Ġfire place
sc ent
Ġatt ach
Ġpol it
Ġam b
Ġnight club
Ġbody suit
Ġriver bank
Ġjo g
Ġjo h
Ġfil l
Ġbre ast
Ġcarri er
Ġbut cher
Ġpick et
Ġear th
mo ck
Ġmon k
Ġqu est
Ġtub a
Ġcat tle
Ġcountry side
Ġham mock
Ġgre et
Ġvis or
Ġwea p
Ġva c
Ġmix er
Ġbeam s
Ġappl ies
ided own
Ġnail s
Ġsad dle
Ġcomplete ly
Ġbanan a
Ġbrea king
Ġcraw ling
Ġbrace let
Ġups idedown
Ġbaker y
Ġsund ress
music ians
Ġpy ra
Ġmur ky
Ġillumin ated
Ġmoun ted
ket ball
bas ketball
Ġhunch ed
Ġvint age
Ġsubst ance
Ġhallow een
a iling
c ustom
c ases
f low
i th
m med
t w
y e
Ġ id
Ġs quee
Ġp ops
Ġc ycle
hi gh
Ġt in
Ġthe se
Ġd ess
Ġd eter
Ġis land
ge e
Ġwal mart
Ġro man
se m
Ġsw an
Ġsp ike
Ġcon n
Ġit al
Ġnear ly
pp y
Ġsur ge
Ġpark a
Ġroad side
Ġmus cular
Ġca rou
Ġex ch
Ġdri bbles
Ġdes er
Ġtur key
Ġfo g
Ġrail s
Ġser ved
Ġser ious
Ġbat man
Ġwe ight
Ġwe ird
Ġvi br
Ġban ners
Ġcir cuit
Ġmem or
Ġhar p
Ġbra ided
Ġgard ening
Ġvide ot
Ġtro phy
Ġpupp et
Ġpea k
Ġinclud es
Ġcolle ction
Ġwaterf ront
Ġste ering
Ġtravel s
Ġstack s
Ġfinish ed
Ġpig gy
Ġtho ught
Ġel bow
Ġmas cot
Ġjockey s
Ġorn am
Ġlick s
Ġadm ire
Ġinvol ved
Ġru ins
Ġvacuum ing
Ġsal on
Ġcru ise
frie nd
cep t
xy lo
Ġlip stick
Ġenclo sed
sw im
Ġdom ino
Ġaccompan ied
Ġbridesma ids
Ġfac ility
Ġsen ior
Ġspons ored
bear ded
Ġfatig ues
Ġgoate e
Ġexcit ement
a ker
b ie
b ull
f old
h at
m il
n umerous
n umber
s chool
Ġ xylo
Ġp ing
Ġp ant
Ġc ult
le gged
Ġt iles
Ġg or
Ġd andel
Ġf ell
Ġf ile
Ġh un
Ġbo red
Ġy ears
Ġan c
Ġr an
Ġn in
Ġlo ck
Ġlo bby
Ġro t
bo ats
Ġgra s
to on
Ġch em
Ġbu dd
Ġbu ggy
Ġup set
Ġle ngth
Ġsk im
Ġsn ork
Ġover pass
Ġsnow mo
Ġso up
Ġcam ps
Ġsc ott
as ting
Ġhead set
ant ly
Ġroad way
Ġflo ors
Ġhor ns
ect ed
iv il
vel y
sc ra
Ġview er
Ġsqu ir
Ġstop ping
wor king
ail s
Ġdire cting
if ied
Ġfix es
Ġinter act
Ġspra ys
Ġdin er
Ġeng age
Ġea st
Ġea sel
Ġcolle cting
Ġinfla ted
Ġmix ed
Ġmotorb ikes
dress ed
shi p
Ġsprink lers
Ġorder ing
Ġbun gee
Ġarch way
Ġsla m
Ġcomple x
Ġshel ves
teen ag
snow boarder
Ġharves ting
Ġtomato es
Ġtread mill
Ġgoo f
stro ke
Ġenthusia stic
Ġsilhouet ted
Ġmaj or
Ġinnertub e
Ġclar inet
chron ized
Ġheal th
Ġpyra mid
Ġcarou sel
Ġpiggy back
mil itary
Ġscott ish
b re
c ity
f as
p ic
w ra
w ater
Ġ ir
Ġa band
in as
Ġs ister
Ġb est
Ġp each
Ġp ets
Ġm ist
Ġm att
Ġc ry
hi c
Ġt on
Ġt orn
is on
Ġd am
Ġf in
Ġst ea
Ġwi ping
Ġre al
Ġre view
Ġr im
Ġba ked
Ġn y
Ġn ood
Ġsh ack
Ġsh ines
il ted
Ġe lder
ad ot
ke ys
Ġsk et
Ġsp in
Ġsp ins
ap er
Ġblo ss
Ġsun sh
are d
Ġflo ur
Ġte es
Ġhelmet ed
Ġfl u
Ġdri ed
Ġopen ed
Ġatt ent
Ġclothes line
Ġsky scra
Ġfountain s
Ġcur ved
Ġsqu irt
Ġfo ggy
Ġbut to
Ġcheck out
Ġref re
Ġbat on
Ġvar ying
Ġsculp ting
Ġincl ine
Ġtracks uit
Ġcano es
Ġtrans p
inish ed
Ġhula ho
Ġinspe ct
Ġtho se
Ġstri kes
Ġcompan ion
bal d
Ġbund le
Ġsack s
Ġhuddle d
Ġactiv ities
Ġshel ter
po int
Ġut ility
Ġmow ing
Ġlanter ns
Ġbarric ade
Ġang ry
Ġsunba thing
Ġavo id
tur ned
Ġip od
Ġpray er
sold iers
Ġmega phone
custom ers
a king
b ea
g ear
n ine
p ong
in ation
Ġs an
Ġo il
er o
Ġin c
Ġp on
Ġt am
Ġg en
is ed
Ġst ates
ut y
Ġshirt ed
Ġsh ed
Ġsh ut
Ġch ange
Ġwor n
Ġsp a
ul ance
Ġso lo
ist ers
Ġper io
Ġcity scape
ub by
Ġpar alle
Ġwalk ed
Ġpain ter
Ġbar n
ment ary
Ġprep ar
per form
co la
Ġfe eds
ne ck
ys et
ca st
Ġsha ves
Ġsweatshirt s
let es
Ġgrill s
Ġstroll s
Ġbreak fast
Ġmon ks
Ġqu ad
Ġbra ids
Ġblock ed
Ġleash es
Ġpe er
Ġmicrosc opes
Ġoper ate
Ġspeed ing
Ġdun k
Ġkaya ker
Ġsaxop h
Ġnap ping
Ġhammer ing
Ġoppon ents
Ġgl an
Ġpolk adot
Ġsup erman
Ġchee ks
Ġmaterial s
Ġwo ven
Ġtex as
Ġassem ble
Ġsem i
Ġcharact er
Ġador ned
Ġmi ami
Ġkimon o
Ġscient ist
play ers
Ġunf inished
Ġexpla ining
Ġblind fold
Ġnur ses
Ġya wning
Ġbor der
Ġamb ulance
Ġmemor ial
Ġping pong
Ġanc ient
Ġtees hirt
a h
b us
c art
f l
f ish
m y
p t
Ġ er
Ġa ward
er men
re t
Ġin line
Ġp om
Ġp low
Ġm es
Ġm ats
Ġth rew
Ġc ivil
nd own
Ġh us
Ġh usk
la dies
Ġto e
id er
and om
ic ely
ic ature
Ġy our
Ġre h
Ġre na
Ġl ie
st on
Ġj am
Ġba ggy
Ġn icely
Ġro bot
ad ed
Ġpa rent
Ġpo sed
Ġcar icature
Ġra g
Ġfor t
Ġrid den
Ġhand ed
Ġhand les
Ġsur ve
ud dles
Ġdan ger
Ġmid jump
Ġwalk er
Ġpro v
Ġca ble
Ġbar ren
Ġsl icing
ang ed
Ġbow s
vel in
ca kes
Ġfil med
wor ker
Ġpat ron
Ġstroll ing
Ġcol umn
Ġim p
Ġmed it
Ġva ul
Ġcook ies
Ġgl iding
Ġcamp us
Ġpatient ly
Ġsu ch
Ġtrim ming
Ġph ones
Ġparas ailing
Ġfet ching
Ġcraw ls
Ġmass ive
Ġmay be
Ġdesce nding
Ġwaterme lons
Ġfle x
Ġextre me
Ġskyd iving
Ġunlo ading
Ġsees aw
Ġcann on
Ġvert ical
motor c
Ġhandleb ars
Ġconn ected
Ġperio d
Ġparalle l
Ġrena iss
a bly
c lad
d ie
d ark
d irt
g ling
h eld
o lo
o graph
p or
p hic
v ation
Ġw ool
Ġp le
Ġd rying
Ġf id
Ġh eat
or ange
id ated
ch o
ch inese
Ġl im
Ġj azz
Ġro se
bo ur
Ġpo ke
Ġle ss
Ġmo on
Ġv oc
Ġhand held
Ġso il
ru g
Ġsc attered
Ġoff ering
Ġpar ts
Ġsuit e
Ġte nds
Ġsweat pants
Ġbar king
Ġsa wing
Ġcover alls
Ġfla me
Ġpart ner
Ġfull y
br unette
Ġfam ilies
Ġcra zy
roll ing
Ġchas ed
Ġpick er
Ġform s
Ġwe ld
Ġsea food
Ġladd ers
if ying
Ġty ping
Ġcoll ie
Ġwra pping
Ġstr ings
Ġdish wash
Ġlead er
Ġcri b
ident ial
Ġdemonstr ates
Ġfocus ing
Ġleaf y
Ġchick ens
Ġsimilar ly
Ġcool er
Ġcab in
Ġmuzz led
Ġwo nder
Ġpress ure
uzz y
Ġstir s
Ġclut ching
Ġelev ated
Ġexplo ring
Ġocc up
ham mer
Ġmaneu ver
Ġsyn chronized
Ġbarbecu ing
Ġsoon ers
Ġautomo bile
Ġpolit ical
Ġjoh n
Ġdeser ted
Ġcamps ite
fas hi
pic ture
Ġaband oned
Ġprepar ation
Ġrenaiss ance
g r
g lass
g entle
r ise
Ġa board
Ġa ff
Ġs elf
Ġo ur
Ġin struction
Ġm ill
Ġm ime
Ġc ats
Ġt or
Ġt ed
Ġt ul
ro ls
Ġd rop
om a
Ġto es
Ġto ast
Ġdo ts
ra y
Ġan n
Ġj ar
Ġlo ud
Ġco ke
se en
Ġback stroke
Ġsome what
Ġup right
Ġv io
Ġover coat
ho e
Ġfa v
Ġse g
Ġhead gear
Ġbus es
Ġac cep
Ġhe ight
Ġbr and
Ġflo ppy
Ġskateboard ers
Ġund ers
Ġmus cle
Ġche ws
cl imb
Ġits elf
ang u
Ġcart wheel
ne w
iz es
Ġbrid al
Ġele mentary
Ġgi fts
Ġfil m
Ġamer icans
Ġsha ve
ult ane
Ġcur rent
Ġdist ant
Ġcla p
Ġrela y
Ġgro wn
Ġleg os
Ġviol ins
Ġscreen s
Ġeng lish
Ġcelebr ates
Ġhoop ing
Ġprin cess
Ġpack ages
Ġmag n
wh eeled
Ġhal ter
Ġharness es
Ġsim ultane
dan cers
Ġretrie ving
Ġthin king
Ġballer inas
Ġtech n
Ġtech nic
Ġreg ister
surf er
Ġdro pping
Ġenclo sure
Ġpow der
Ġmeas uring
Ġcoca cola
Ġstrugg ling
Ġcitiz ens
Ġja velin
Ġsaus ages
Ġinst all
Ġmarking s
lap idated
Ġxylo phone
Ġmatt ress
Ġbutto ndown
bea utiful
Ġdishwash er
a ction
b ike
c ome
c ol
f irst
f illed
g n
i b
k ely
p rin
u ce
w are
Ġs ight
Ġs ucking
Ġw re
Ġw it
Ġw ades
Ġc ushi
le n
is k
Ġd yed
Ġf eel
Ġf uzzy
Ġh ed
Ġh ops
al let
Ġwi cker
un te
all ic
Ġr it
Ġwhite board
ce ment
Ġsm art
bo b
Ġcar toon
Ġch ap
Ġdress ing
Ġsome body
Ġsp ir
Ġse eds
Ġgo cart
Ġun ison
Ġun seen
und red
Ġli kely
Ġgu ests
Ġgu iding
Ġhel ped
Ġwh eat
Ġbase ment
sh e
sh op
Ġsing ers
Ġold fashi
Ġwind bre
Ġex ca
Ġshe er
Ġcross legged
Ġdri vers
Ġdri bbling
Ġdi lapidated
Ġtank top
Ġsub mer
Ġfil ms
Ġsnowboard s
Ġequ estrian
roll er
Ġrail way
Ġblow er
Ġstra p
Ġhapp ening
Ġrailing s
Ġpitch ing
Ġped als
Ġspe c
Ġcas hi
Ġrefle cting
Ġpadd ed
Ġmag ic
Ġz om
Ġes c
Ġtu gging
Ġrollerbla der
Ġmu le
Ġboun cy
Ġjew ish
Ġpige on
Ġcerem on
Ġexcited ly
pro f
Ġseem ing
Ġremo ving
Ġpurch asing
Ġevery where
Ġcommun ic
Ġfle a
Ġattend ant
Ġacrobat ic
Ġsear ching
Ġscratch ing
Ġstock ings
Ġcocon ut
Ġflee ce
strip ed
Ġapparent ly
Ġvibr ant
teenag ers
Ġtam bour
Ġted dy
Ġtul ips
Ġfav or
Ġoldfashi oned
a c
b ra
e le
m uffs
o ver
u ra
Ġ q
Ġ ur
Ġs ipping
Ġs amp
Ġb ell
Ġp ans
Ġth ing
Ġt ip
Ġon coming
Ġf er
Ġh om
at ula
es us
ld ressed
op ard
Ġhi kes
Ġsit u
Ġj esus
Ġba king
Ġn ational
ver n
ri ers
Ġro ping
Ġta p
Ġk ore
Ġfor ming
Ġle opard
Ġse ating
Ġper f
ves t
Ġthem ed
Ġpro per
Ġpro ba
Ġsign al
Ġmus h
Ġkid die
Ġex otic
Ġde vices
ric t
Ġche ers
Ġve il
Ġtrain er
iv en
Ġbear s
Ġmet allic
we ed
Ġele g
Ġbre ath
Ġsha ke
Ġdra in
Ġconc ession
Ġfour wheel
Ġsqu in
Ġsqu ad
Ġdist rict
os ed
Ġform ally
Ġwe eds
Ġear muffs
Ġres idential
Ġpaint brush
Ġcont rols
Ġyo yo
Ġcr ut
Ġshad ed
Ġbalan ced
Ġsto cking
Ġteach es
Ġz oo
Ġwetsuit s
Ġpan el
Ġmop ping
Ġconf etti
Ġfloat ies
Ġstor age
Ġwar ming
Ġremo te
Ġrec re
Ġattra ction
Ġheav yset
Ġtuxed os
Ġsep ar
Ġpocket s
Ġsele ction
Ġwrist band
Ġpr ide
Ġu k
Ġrabb its
Ġrust y
Ġant icip
Ġdolph in
Ġflood ed
Ġcath ed
Ġcult ural
Ġhus band
Ġreh ear
Ġsimultane ously
Ġcashi er
Ġfavor ite
Ġproba bly
c ars
c apped
d ra
m ely
t ies
y ellow
Ġ que
an itor
Ġb att
Ġm ad
Ġt elling
Ġon es
Ġto ok
and ex
Ġdo zen
ch et
Ġan k
Ġr andom
wn s
Ġlo ll
Ġbl u
Ġloo se
Ġla ve
Ġla den
Ġgra phic
Ġcar ved
Ġch ore
Ġbu ck
Ġhat e
Ġsnow storm
Ġsnow capped
xt ure
Ġso lid
Ġclo ses
Ġsc ale
Ġgo ats
as ed
Ġsun hat
Ġwood land
Ġhel lo
Ġar ray
Ġswim wear
Ġdark ened
pe ct
Ġwind ing
Ġex it
Ġtri o
Ġbes ides
Ġcor rid
Ġcre st
Ġcre ate
Ġcre ates
Ġcompet es
Ġcur ling
ot ion
Ġwin ning
Ġcarri ed
Ġflower y
Ġgr ins
Ġwe ights
Ġcont in
Ġsea son
Ġmil ling
Ġmon ster
Ġint ric
Ġsled s
Ġcontain s
Ġea ger
Ġparticip ants
Ġmultico lor
Ġsculpture s
Ġprof ess
Ġkind s
Ġround s
Ġcook ed
Ġcast s
Ġsum o
Ġrub ble
Ġmess age
fire men
Ġwash er
Ġdesign ed
Ġrece ives
Ġexerc ises
Ġsail boats
Ġliqu or
Ġstor m
Ġprete nds
Ġbarrel s
Ġelectron ics
Ġcab inet
Ġfeat ures
Ġmuzz les
Ġdefe nder
Ġsem ic
Ġarr ange
Ġarr anged
Ġwakeboard ing
Ġcapture d
Ġhop ping
Ġsar i
Ġsom br
Ġsponge bob
Ġhaul ing
Ġarchite cture
cow boy
Ġbutt ons
Ġcy l
Ġdepic ting
Ġpuzz le
Ġcul ture
Ġdest ination
Ġstrawber ry
Ġadolesc ent
Ġdess ert
sem ble
Ġdomino es
Ġvoc al
Ġrit ual
undred s
Ġceremon ial
Ġcathed ral
Ġloll ip
b ell
c al
f o
g un
l in
s y
w rit
Ġ ult
Ġs ure
Ġb ong
Ġm el
Ġm ick
Ġc inder
hi st
ro ng
ar at
Ġg iven
Ġd ent
Ġd ental
en ger
or se
Ġre ve
Ġhi des
Ġl umber
Ġl angu
Ġan y
Ġr ig
st al
Ġba le
Ġlo st
Ġsh ing
Ġdown ward
Ġbe e
Ġher o
Ġta lent
Ġch ubby
Ġback ward
Ġle gged
Ġmo ss
Ġover cast
Ġsp l
Ġsp atula
Ġsp andex
Ġtra vers
ig an
ho le
Ġun it
Ġli ber
Ġcom bat
Ġbic ycl
sk i
ant ily
Ġthem e
gg ers
Ġpro c
Ġca use
Ġsa lad
Ġart ific
Ġob ama
Ġsurround ings
Ġdis ney
Ġdes c
Ġdi aper
gra y
Ġam ish
Ġcompet itors
cor n
Ġview s
Ġgri ma
group s
Ġcir cus
Ġbusiness men
Ġchi p
Ġcut out
Ġped al
Ġtow ed
Ġcard igan
Ġprote ct
Ġpier cing
Ġda ily
Ġass isting
Ġslo t
Ġtack les
Ġdon keys
Ġwheelchair s
Ġrub s
Ġmess enger
Ġbill i
Ġcarpet ed
Ġtight rope
Ġheadsc arves
Ġeleph ants
Ġpop corn
Ġpret z
Ġexhib ition
Ġpri est
Ġbagp ipe
Ġdeli very
Ġkit es
Ġawa it
Ġevery one
Ġge ese
Ġpee ks
Ġtick ets
Ġoverloo k
Ġnewly wed
Ġfeather ed
Ġpotato es
Ġcongreg ate
Ġrecl ining
Ġalcoho lic
Ġconcentr ating
Ġcub icle
Ġconstru cting
Ġextre mely
Ġletter ing
Ġara b
Ġobsc ured
Ġhambur gers
Ġgal lo
Ġresp o
Ġhorizont al
Ġton gs
Ġsunsh ine
Ġpoke mon
Ġtechnic ian
shop pers
Ġwindbre aker
Ġsubmer ged
Ġlave nder
Ġcorrid or
Ġult imate
Ġliber ty
e very
m em
t ic
y or
Ġs orts
Ġo k
an ting
an ke
Ġp ear
Ġp am
Ġp uffy
Ġg um
Ġd or
Ġd itch
Ġf erry
Ġis ra
Ġst itch
Ġwi elding
on lookers
Ġto pped
Ġdo c
Ġdo d
Ġre tail
Ġplay pen
Ġan gle
Ġan sw
Ġr ising
Ġba ge
Ġho les
Ġfro lic
Ġstre wn
Ġe nds
Ġbe ating
Ġbe yo
Ġk et
Ġsome ones
Ġra ke
Ġra fts
Ġma c
Ġsk il
Ġv eter
Ġwa ff
Ġcrowd s
Ġclo sing
ick ing
ep er
Ġun ident
Ġun wra
Ġhead first
Ġdan gling
Ġbr inging
Ġpro ced
Ġbase man
Ġtan ned
sh aped
Ġarm ed
Ġex its
Ġde al
Ġapp arat
Ġag ility
Ġmar ina
ang le
Ġpast ries
Ġdis co
Ġhill y
Ġpass ion
Ġbow tie
Ġbear ing
Ġjo gger
Ġcompet itor
Ġpl u
Ġrain ing
Ġview ed
Ġbet ter
Ġwr ite
Ġsil k
Ġstra ps
Ġpat rol
arm ents
loo ker
Ġear b
Ġdock ed
Ġres ort
Ġdire cts
Ġinter ested
Ġtub es
ession al
Ġsmo ck
Ġartist ic
Ġeng aging
Ġtro mb
Ġoper ation
Ġslo pes
Ġpul ley
Ġva st
Ġround ing
Ġpair s
Ġste er
Ġwine glasses
Ġpin ned
Ġbutton up
Ġcobble d
Ġposition ed
pa ved
Ġpower point
sho re
Ġprete nd
Ġpop ping
Ġkeep s
Ġkeep ing
Ġgown s
Ġemer ges
Ġsla b
Ġdot ted
Ġru gs
Ġawa its
Ġrec ently
Ġsniff s
Ġrecord s
Ġwel ldressed
Ġlanter n
Ġkimon os
Ġstain ed
Ġsymbo ls
Ġquest ion
Ġvac ation
flow ers
Ġgoof y
Ġnood les
Ġpom p
motorc ycle
gentle man
Ġtechn i
Ġkore an
Ġcrut ches
Ġprofess or
Ġmick ey
Ġspl its
Ġartific ial
Ġbeyo nd
a ks
b are
b ird
b icycle
p ar
r d
s ion
t and
t im
Ġa id
in ter
Ġs in
Ġo ll
Ġb ats
Ġp eel
Ġp iled
Ġp unk
Ġc em
Ġg ain
Ġon looker
Ġd ivid
Ġh on
en e
om ing
Ġwi gs
un a
et ery
Ġy ear
Ġy anke
Ġr ises
Ġj anitor
Ġba s
Ġlo af
Ġlo unges
Ġsm elling
Ġha ired
Ġpa il
Ġpa vil
Ġta gged
Ġpo king
Ġk ilts
Ġbu d
Ġbu g
Ġra ther
Ġma ster
Ġle mon
ble m
Ġbrown ish
Ġtra ys
Ġhand ic
Ġcon ve
Ġso lder
Ġsc ope
Ġsc antily
Ġoff ers
Ġper cuss
ff y
Ġun ion
Ġun ited
Ġli ves
Ġguitar ists
ol f
Ġac cess
Ġad vent
umb ling
Ġpur s
Ġclimb ed
Ġen semble
Ġarm or
Ġca bles
ric ans
Ġche w
Ġcap ri
Ġcap tain
Ġcover ings
Ġkn ow
Ġfr ance
ort ment
co lor
Ġbow ing
Ġski pping
sc ope
ker chi
Ġal ike
Ġcor d
Ġey ed
Ġcur ious
Ġglo ved
Ġgraffiti ed
Ġstru ggles
Ġwe igh
Ġsea shore
Ġsurfboard s
Ġim port
Ġim pro
Ġcoll ide
Ġtow els
Ġcal i
Ġshad y
Ġshi elding
Ġleash ed
Ġstar ts
Ġstar ring
Ġstream ers
Ġparticip ates
Ġprot ester
Ġass ortment
Ġfight ers
Ġwashing ton
Ġguard ing
Ġva se
Ġpan cake
Ġtw ister
Ġdon ations
Ġappear ing
Ġdun es
Ġdun king
alm on
Ġknit ted
Ġconf used
Ġrub bing
Ġpeace ful
Ġembra ces
Ġcond ition
Ġtight ly
Ġpit bull
Ġparach uting
Ġext ra
Ġorgan ized
Ġexte nds
Ġkit ty
Ġkit ten
Ġtricycle s
Ġassem bling
Ġpumpkin s
Ġbrea thing
Ġsty led
Ġbron ze
bic yclists
Ġpood les
Ġspark lers
Ġappare l
Ġhook ed
Ġjud ges
Ġsar is
Ġturtle neck
Ġhistor ic
Ġaddress es
Ġara bic
Ġcock pit
Ġcontempla ting
photo graph
Ġcent ral
Ġpops icle
Ġital ian
Ġexch ange
swim mers
Ġgras ping
Ġbudd hist
Ġsnowmo bile
Ġcry stal
Ġflu ore
Ġhulaho op
perform ers
Ġsaxoph ones
Ġassemble d
Ġhusk y
Ġdanger ous
Ġmagn ifying
Ġseeming ly
Ġbatt ling
Ġpam ph
Ġisra el
Ġapparat us
Ġcem etery
Ġpercuss ion
kerchi ef
c s
c are
e bra
g in
g ame
h oma
i la
i ver
j a
l ined
m ined
n ia
o dy
t ors
z il
Ġa wk
Ġs i
Ġs almon
Ġin coming
Ġm r
Ġm ount
Ġm allet
Ġth read
Ġt esting
ro ning
Ġg ay
Ġg rip
Ġg inger
is m
Ġd ar
Ġd ug
Ġf ut
Ġf oo
Ġf ier
Ġf iring
la homa
Ġto te
id ge
Ġplay house
Ġan vil
Ġr und
Ġr ustic
st y
Ġco la
Ġgirl friend
Ġfro wning
Ġsh apes
up s
ad ult
Ġbe ans
ve lo
Ġback hoe
Ġra w
Ġma sc
Ġma ker
Ġsk ill
form ed
Ġrid ge
Ġmo s
Ġor ders
Ġover h
Ġover turned
ain t
Ġhand kerchief
Ġso ars
Ġso aked
Ġso aking
Ġsc ri
Ġsc ary
Ġsc ared
Ġoff er
Ġgo ers
Ġgo ndo
ist a
ist ed
do wn
Ġhair y
Ġhair net
Ġcl er
Ġcl ip
Ġcl ust
Ġsho ts
Ġar ched
Ġpre gn
Ġsuit cases
Ġboo t
Ġte nd
Ġwind s
Ġex cept
ag o
Ġsa les
dd en
row s
Ġfish ermen
str ide
iv an
ang ular
Ġri pped
Ġno ses
Ġcloth s
Ġpart ly
Ġdis k
Ġpass erby
ron ts
Ġmet er
Ġjo in
Ġstair well
Ġind ex
sp s
Ġpl ush
Ġdra mat
Ġshou ld
Ġfour th
Ġvol unte
Ġstud ies
Ġsqu at
Ġfo lder
Ġbea gle
Ġcra b
Ġbut ch
Ġroo ster
ber man
out do
head ed
Ġcla use
Ġsea weed
Ġpot ted
Ġmask ed
Ġlit tered
Ġcut off
Ġsled ge
Ġviolin ist
Ġmeat s
Ġstar bu
Ġea gle
Ġass orted
Ġz ebra
Ġi roning
Ġfra mes
Ġwine glass
Ġspeed o
Ġmix es
Ġkaya kers
Ġhear ts
Ġpen gu
Ġamus ed
Ġfocus es
Ġbroom s
Ġparach utes
Ġkni ves
Ġwar ri
crowd s
Ġscru ffy
Ġange ls
Ġwake boarder
Ġdeli vering
Ġph ys
ara o
Ġtut us
Ġrecl ines
ipp ers
Ġbound s
Ġchisel ing
Ġjud ge
mar athon
Ġshru b
Ġnavig ates
ester n
Ġsymbo l
pain ted
bi kers
Ġske let
Ġslow ly
Ġweap on
Ġdandel ion
Ġskim py
Ġtransp orting
Ġmes h
Ġmedit ating
Ġweld s
Ġaccep ting
Ġcurrent ly
Ġcushi on
Ġchap s
Ġesc ape
prof essional
Ġsamp les
Ġeleg ant
Ġintric ate
Ġlangu age
mem bers
Ġket tle
Ġearb uds
Ġconve yor
Ġimport ant
Ġfluore scent
Ġawk ward
Ġrund own
Ġgondo la
Ġpregn ant
Ġstarbu cks
a id
b en
c yclist
e cut
f ans
g ym
h el
h orse
m it
m ic
o rous
u le
u ed
y ou
Ġs ed
Ġo ar
Ġin se
Ġp ep
Ġm oo
hi kers
Ġt rou
ro t
ro id
Ġg low
Ġg ap
Ġg arments
Ġd alm
Ġf u
Ġh uts
Ġwi i
un i
ir cle
Ġdo berman
ra ct
ch e
ch ef
ss tand
Ġbo ston
Ġhi pp
ers a
Ġj ug
Ġn er
ea pp
Ġho st
Ġco b
Ġout cro
Ġe c
Ġas ide
Ġher d
Ġgra in
Ġpo kes
Ġpo ker
Ġpo ised
Ġk abo
Ġch allen
Ġch anging
Ġbu ys
Ġfor d
Ġle is
Ġsw amp
for nia
Ġbro ch
Ġv o
Ġv el
Ġv ine
Ġsnow bank
Ġcon ven
Ġcon vert
ig ator
Ġfa ced
Ġpar ag
sk in
Ġpro mo
tor ch
Ġen er
Ġte ther
Ġbar riers
Ġfl ipped
Ġmar ri
Ġhigh five
Ġnew sstand
ny rd
Ġcow or
Ġshoes h
br ide
Ġcra ck
Ġgraffit ico
Ġbottle d
Ġpres er
Ġstructure s
Ġgr in
Ġear ring
Ġban ks
Ġcont act
Ġqu art
Ġbra zil
Ġchi c
Ġspe nding
Ġbur gers
Ġshi t
Ġtro t
Ġcircle s
ba gs
Ġwaters k
Ġseat tle
Ġz o
Ġcanoe ing
Ġdrawing s
Ġtw ent
Ġobstacle s
Ġdem ol
Ġdun ks
Ġpin eapp
Ġmop s
Ġprofession als
Ġmin ivan
Ġent ry
Ġjugg ler
Ġstool s
Ġke ys
Ġwash ed
Ġown ers
Ġgl ider
Ġdel ic
Ġlamp s
Ġgrand mother
Ġexpress ions
Ġsuper vis
Ġemer ging
Ġbead ed
Ġreg ion
Ġlan es
ula ted
Ġleot ards
Ġaim s
Ġmechan ic
Ġdesce nd
Ġwel come
Ġmcdonal ds
Ġador able
Ġsnap s
Ġdef ensive
Ġrabb it
Ġstro ng
Ġstrugg le
Ġcitiz en
Ġlimb s
Ġhambur ger
Ġasce nding
Ġpatri otic
Ġswe et
Ġming le
Ġstrum ming
Ġproud ly
Ġgreet ing
Ġdam aged
Ġrefre sh
Ġblindfold ed
Ġvaul ting
Ġoccup ied
Ġinstruction s
Ġseg way
Ġunders hirt
Ġexca v
Ġzom bie
Ġrehear sing
fo am
Ġdent ist
Ġbilli ards
Ġpavil ion
Ġmasc ara
Ġchallen ge
Ġgraffitico vered
a cts
b ar
g as
i ental
j ack
l i
m ates
p at
p ad
p ipe
s ks
s tel
t ation
w eds
x im
Ġs ights
Ġs ips
Ġs isters
Ġw ade
Ġo ars
Ġb ins
Ġb inder
Ġp un
Ġm ight
Ġt i
Ġt ink
Ġt rous
Ġt ilted
ro be
Ġg ates
Ġg lowing
Ġd ye
Ġis le
Ġman ip
Ġman ual
at ic
om ot
or y
or ter
or iental
Ġto pp
rou ght
te am
Ġl id
Ġan ch
Ġj ets
Ġj unk
Ġba les
Ġba gg
Ġba ses
Ġn on
Ġlo cked
Ġblack sm
Ġsh ined
Ġwal let
ri mmed
il ling
Ġla mb
ke eper
Ġta ste
Ġch ops
Ġbu cked
Ġra pp
Ġra kes
Ġgreen house
Ġbro thers
air s
Ġcon so
Ġwork man
Ġwork men
Ġrock et
Ġwood working
Ġsho uting
Ġgu ides
Ġmid s
Ġroad work
Ġad v
Ġflo tation
Ġstrip s
Ġex ecut
ha ust
Ġsa ve
Ġsa una
Ġtre k
Ġsl ung
Ġall igator
Ġsle igh
Ġno thing
Ġpast ry
Ġpass age
Ġcell ular
Ġbook bag
Ġdi ag
Ġmet rop
Ġbackpack er
Ġdrum sticks
br idge
Ġstop light
Ġbea ker
Ġbea uty
Ġcra fting
ster n
Ġblow torch
Ġramp s
Ġstra dd
Ġhors ed
Ġgr inning
Ġbull s
Ġwe b
Ġwe lder
Ġres ear
Ġdecor ating
Ġinter ior
Ġqu ilt
Ġfol k
ia chi
Ġloc omot
Ġham mers
Ġpost s
Ġproject ed
Ġfight er
Ġfair y
Ġtelesc opes
Ġsee ing
Ġste tho
Ġent ire
Ġposs ible
Ġfinger na
Ġdoll house
Ġentertain ment
Ġrece ive
Ġtoss ed
Ġsail s
sho t
Ġpunch es
Ġretrie ves
Ġmain tain
Ġext er
Ġexte nding
Ġbreakdan cer
Ġtech no
Ġpress es
Ġparas ol
Ġmerch ant
Ġdro ps
Ġdesce nds
Ġocc ur
Ġbrace lets
cot ch
Ġsmoo thing
Ġsele cting
Ġlat in
Ġdef ense
Ġretur n
Ġhistor ical
Ġshru bs
Ġaddress ing
Ġshield s
Ġattach ing
Ġdeter mined
Ġsurge on
Ġadmire s
Ġsnork el
Ġir ish
Ġrim med
Ġpatron s
gr and
Ġinstall ing
Ġhops cotch
Ġtambour ine
Ġq uit
Ġsquin ting
Ġvocal ist
Ġlollip op
Ġreve aling
Ġpretz els
Ġskil let
Ġunident ified
Ġproced ure
Ġcali fornia
Ġclip board
Ġskelet on
uni formed
Ġconven ience
Ġconvert ible
Ġchic ago
Ġtrous ers
Ġmetrop ol
a cy
a cent
b ut
b ig
d in
h aped
i j
i en
i ors
l ift
m ountain
n al
o nd
r ation
t an
t ennis
v et
v ine
Ġ ver
Ġa irl
Ġs ip
Ġs atch
Ġw aring
Ġw anting
Ġw estern
Ġb ree
re ading
ro ck
Ġg ated
Ġon ce
Ġd ip
om et
om as
it ting
Ġst udy
Ġwi zard
lo cal
Ġto t
ed ing
Ġwhi s
and a
and white
ear ing
ic les
Ġre ct
Ġre qu
Ġhi dden
Ġl la
Ġsit es
Ġn ine
Ġn ude
ea stern
Ġco s
um my
ri ll
Ġe ater
ad or
Ġpa w
Ġpa ge
Ġpa use
Ġpa stel
ve nd
ve led
Ġgra ying
Ġpo ur
Ġwater craft
Ġfor ce
tle d
for d
Ġcro chet
Ġmo thers
Ġv ers
Ġv ess
Ġsp out
Ġperson al
Ġcon tor
Ġso ur
Ġsc oring
Ġoff road
Ġse al
Ġse qu
Ġse ws
Ġwork ben
est yle
ish ing
sk ier
ee ing
Ġca kes
Ġfoot bridge
Ġde ere
Ġaf ro
Ġmar ches
enn a
Ġsl ip
Ġcan ned
Ġcou ld
Ġpart ying
Ġrestaur ants
Ġdi am
Ġkitchen aid
Ġsnowboard ers
Ġclass ical
Ġmatch es
Ġaud io
ber y
Ġstation ary
Ġpres um
Ġfun ction
Ġland ed
Ġvi et
Ġban quet
Ġdecor ation
Ġrep res
Ġvis it
Ġwea ves
Ġsquare s
Ġtype writ
Ġpea ks
Ġtun ic
Ġwindows ill
Ġtw in
Ġste al
Ġeye b
Ġdon uts
Ġharness ed
Ġtravel ers
Ġsupp orted
Ġfinish es
Ġpet als
Ġadj acent
Ġcarp enter
Ġboun ces
pa rents
Ġchop py
Ġsec ured
Ġtax is
Ġwar ning
Ġtrim med
Ġpri m
Ġic ed
Ġph arm
Ġparas ail
Ġsal uting
Ġlean ed
Ġassem bly
Ġcrown s
Ġtem por
bic yclist
Ġpir ates
Ġcongreg ating
Ġspid er
Ġconcentr ates
Ġconstru cted
Ġdivers e
Ġem otion
Ġscratch es
Ġsom ersa
tho use
Ġsprin ts
Ġwindsurf ing
Ġsaus age
Ġcocon uts
Ġgrow ing
Ġgrow ling
Ġflash light
Ġarri ve
Ġrem ain
Ġsam ple
Ġbon fire
Ġsquee zing
Ġgor illa
Ġnin te
Ġsquir ting
Ġenthusiastic ally
Ġreview ing
Ġattent ively
Ġskyscra pers
Ġgen er
olo g
Ġlim o
Ġtor ches
Ġann oun
ele ven
Ġmush room
Ġfourwheel er
Ġeager ly
Ġsemic ircle
Ġshing les
Ġtromb one
Ġshrub bery
Ġshoesh ine
Ġblacksm ith
Ġstetho scope
Ġexter ior
Ġtechno lo
Ġworkben ch
b um
b read
c is
c ier
s en
Ġ king
Ġa gg
Ġs uds
Ġw on
Ġin vest
Ġp ly
Ġm p
Ġc ere
Ġt ide
Ġt ell
ro foam
Ġg y
Ġon looking
Ġd il
Ġd ren
Ġd art
Ġd uff
Ġf ists
en gers
at own
it an
it ation
it ively
Ġst ead
or ies
ra wn
Ġbo ating
Ġpla c
Ġy et
Ġl inger
Ġr d
Ġn uts
ea st
ea red
Ġho vering
Ġbl ues
ad ow
Ġbe gging
Ġas h
Ġsm ok
Ġta sks
Ġgra ce
Ġch unk
Ġback lit
Ġfor rest
Ġne at
ind ividu
Ġrid ding
Ġcro co
Ġcro quet
Ġtra m
Ġhand ful
Ġhand made
pp ers
Ġse x
Ġse xy
Ġgo vern
as ion
Ġair craft
Ġblo wn
Ġwork ed
Ġperform ed
Ġrock er
Ġdr unk
Ġli zard
ud dling
Ġwalk ers
qu es
Ġbr ing
rip tion
Ġdark er
Ġcomp letes
pe ctive
sh es
Ġsweat y
Ġday light
Ġex haust
Ġtri be
Ġmiddle age
Ġmiddle eastern
Ġapp la
Ġsa fe
ere es
Ġfootball er
Ġsl ices
Ġsle nder
Ġno vel
Ġfore front
Ġfire s
Ġopen air
Ġhigh f
Ġdis p
stum ed
co ck
co stumed
Ġatt ired
ron a
Ġcor ds
Ġjo bs
Ġind ic
Ġmach et
Ġfil ls
Ġdra gs
Ġlap s
Ġcur led
Ġhome work
Ġref erees
Ġcup cakes
Ġbat ting
Ġschool girls
Ġland sc
Ġban gs
Ġinter n
Ġbare ly
uck ed
Ġput t
Ġrelax ed
Ġlit ter
ens ion
Ġspra w
Ġped aling
Ġmed als
Ġprote cting
Ġmirro red
Ġtro ops
Ġbrightly colored
Ġprof ile
Ġfen cers
Ġemb roid
Ġmust ard
Ġact ors
Ġhalf way
Ġbalcon ies
Ġport ion
Ġstack ing
Ġdoll ar
Ġnap s
Ġchest ed
Ġsupp orting
Ġpig s
Ġbou lders
Ġpajam a
Ġgl ides
Ġlay up
Ġleaf less
Ġretrie ve
crowd ed
Ġmain ly
Ġdefe nding
Ġdefe nders
Ġbreakdan ces
Ġpurch ases
Ġdec ide
Ġinstru cting
Ġsty rofoam
teen age
Ġodd ly
Ġchin atown
pass engers
Ġcray on
skate board
Ġcurtain s
Ġcapture s
Ġinterview ed
wear ing
music ian
Ġlate x
Ġkno ck
Ġquiet ly
Ġstain less
Ġgaze bo
Ġwindsurf er
lly wood
bi ker
Ġpatri ck
Ġmitt ens
Ġspi ked
Ġsol itary
Ġgla cier
wal ks
Ġsurge ons
Ġsquirt ed
Ġglan cing
bus y
rug by
new ly
col le
Ġhom es
Ġperf ect
Ġones ie
Ġbong o
Ġmoss y
Ġproc ession
Ġdesc ri
Ġgallo ping
Ġdor m
Ġpomp oms
bare foot
Ġoll ie
Ġyanke es
Ġhandic apped
Ġweigh ing
Ġcondition s
Ġmarri age
Ġmanip ula
Ġhorsed rawn
Ġvess el
Ġdiam ond
Ġpresum ably
Ġviet nam
Ġtempor ary
Ġninte ndo
Ġinvest ig
Ġcere al
Ġdil ig
Ġduff el
Ġcroco d
e ven
f ronts
k a
k ea
m al
m allow
n ie
o lored
o late
r up
r ine
t rucks
w er
w ind
w ise
z ens
Ġa uth
Ġa ust
Ġa we
Ġa ctive
Ġa va
Ġs ons
Ġs ize
Ġw ok
an es
an se
Ġb one
Ġb illow
Ġp is
Ġp el
Ġp uddles
Ġc ad
